node {
  name: "input_1"
  op: "Placeholder"
  attr {
    key: "dtype"
    value {
      type: DT_FLOAT
    }
  }
  attr {
    key: "shape"
    value {
      shape {
        dim {
          size: -1
        }
        dim {
          size: 128
        }
        dim {
          size: 128
        }
        dim {
          size: 3
        }
      }
    }
  }
}
node {
  name: "conv2d_1/kernel"
  op: "Const"
  attr {
    key: "dtype"
    value {
      type: DT_FLOAT
    }
  }
  attr {
    key: "value"
    value {
      tensor {
        dtype: DT_FLOAT
        tensor_shape {
          dim {
            size: 5
          }
          dim {
            size: 5
          }
          dim {
            size: 3
          }
          dim {
            size: 24
          }
        }
        tensor_content: " \271\026=\362\2475=*\350\021\275\247ta\275s\2559\275_p\247\274\241]\320\274\232\272\n=\3770\272=g\304\364<\260\276b:)\225\260<\333\025\037>\247\033\020\275\376\324\265\273\265k+=/\272\t\276~s{=\003K\225=\221\2422=\017\306A\273Qh\333;\264Or\276n\005\231\274z\330k\275\304N\213=wT\266\274vu=\274\275\3423\275\212\033\322;\224\025\316\275\222\330$\274W\"\343\275\264\331y\274\230 \251\275yz\212<\332\207l\276\330\206f\274A\006O=C\033\214=\021\3474\274y#l\274\n\033\200<i4\262\274\227\254\353<{\237\225\273\252\271\225\274\234}\003\273\354\201\212\275gX\221\275x!\207=p\032\037>\272\010A\273\264-\363;\013\020\\\275\230-\311\274\221kj\274K\256\271\2740\020\265<mL1\275\236Q8\276\317\032A=yL\033\275\265i\320=\270\233\334=e.\240;\020\3077=\\\224\236\274\033\020\265\273\225\311\223<\306\rD<\205\016s\272\3514N\275\275\264{\275\016\266\301<\305\244\211\275N\362\244\275L\335\326\274A\261w\275\343\234F\274\t\377`=\373\224\207=\346##\275V\343\352<!W[>\250a\315\275\t\353\021=\014\337\255<\325\036/\276P\2253=a\324\033=\357\362\023<\020\3658<A\306\014= 9o\2763\350]\273\\\366\252\274\225z>>\235\247\275\272:P\262\275\312}\313\275A\341\"\274\337\315\325;\266\017\004\275\354\007\217\275\3524\237\274\243)\034\2753E\313;\016\270u\274#a\026\2744\002|=\251\363\026=\323\'a\276\031F\237;\374\260\367\274\330\331\201\275wZ\n=mBK=+UO\275\354Q\'<\373\314\351\273\355\245\034\276\364\304&=\352]8=\331s0\275]\340t;\270/\014=\353\202\200\275\024\343B<\315|\226\274\234\014o\271t\3005\2752\217\305\275\220\364\352=\"T\324=\004\236\246<G(\017>A\206g<\003\324\037;\215\230\325\274h\344\235<\252\036B=\021\222\362;b^\205<z\350\250\275\241w>\275FFu<S\241 =\013\361\221<\335\326\210\2759/\351\274#\021\257<\021\204.<\240%\213=T\036\365<8\n|=\215\375g>r\344\034\276\364wW\276\226i\207=)\001$\276A\312\"<\216P#=\215\003\332;\365k\255\274\215hq=\251d\217\276\215\036\236\274y\320\227<\201\2222>\320\266\222\273\340\001\224\275\341\245k<~_]\275&)\205=\341\237\374<W8_\275\274\033\'\274\225\261\312\274\031\023\n=1\024w\274^z\034\275\3566\214\276\313\315\372;P\3173\276\337\347D:\251\005 \274f;\261\274|\016\344;b\306;=\307\n\002\276?\005\"<\367\343\001=\272\241\t\276\365\316y<\231\201\375:\247\364\247\273E\336\037<\201\302m=\311\242\276<\021\200\024\274\312\203!\274s\235\\=\275;\305\274\234/#\276G*P>\223\245\r\276*\322\334\275\231t/>\261\275\256\274\010\0334<\022\271\236={\340\255<\241\224\002=\272\306D\275\346+\211\273\370]\321\275\323\211\231<\265\214\273<\350)\035=\254@\237<\372@\275\275\027\021\305\274L\347\336<\300\243\022\274W\324\216<G\203\355<\232\234l=\245\013\230>\374\260\r\275\215_\233=4?\313<\2201\336\2750\305\352<@\250[\273\t\241T\274\3173\022\274?\"\335<\0043Z\275HQ\n\274\211\0238<\2664\207=}\316\006=\204\311d\275\004\255-<\t8\245\275\302\0240<\340\227\312;\"\247\'\275zw?\274\341\0001\275\340J\303\272z\272\007\276\331b\235;\252\315\205<X5\010=\324\200\r\274\202\306\320;\251f)\273\312\224\234<E\306J<\313 -<\212\305\027\273\223$\355<\274\217\345\274\034\344%\276W\016\t=&E\307\272\252\0034\275\217\324M<\001\212\007;<\0052<h \222<1\2212<V!\'<9\344\200\275\300\307H\276ou\017<\365\361\271<\"\310\311\275\365\255\341=\356\217\310;\252\036,=pA\234=\311\227G=%\263O;\362\360\374\273\312Nl;Z\375$\275\014V\037>\007k\252\275L\\L\275\340\342d\273Z\3347\275\266\231H\275\243\201p<L;\206=\377\272\212\274\026W\205=\271\202\353<_\215\215>\246\303\336\2746\r\304=\225C\201\275\213\236\210\275[\367\326<\227{\256\275 F\235\274\325\033*=l\006\332\274\214\245\367<\235LI\274@\311/=\313Rh\275\006\236R\275s\351\023\274\275\014\221\274\234\025!\275\300\210\001\275\332f\362\273+hx\275^\236,\274\225\230n\275[\0042<\224$\037\276\364M\371;\261{\236=0S*\274M@\001>\311\356\335\274C\354\223\273vO\243<\374\342\211<\206uN\275\205\375U=\275\010w<\226<E<\265\261X\275\005/\233\275\002\301\271<\341\363\211\271\227\255\035=\273\216e\275\227\017\371<%\267\253<\341\205\254<X,\003\275e\312\240\275t\313Y\276\220\263\306\2734\241\351\274\261\027\300\275^\266\";\035\247j\274\233\354\224<\241\251\237\273#\215\241<\355\212\257\274\0221)=~\304^\274\214\"\036\275\217\2104\275\273\244\307=\225\362\022=7\030F\275\206\235\222\272P*\001>\273\375\233<2u\024>\003\234\256=z`\217=>C.\275\245*\324=E\266\021\276Q,\221<n:\225\2753\347\356<\274B\\=fH\260\273JT >\317\245\250<\275\334]\275\373]I\275\327\236\355\274\357s\263\275\212*=>\273\324b\274\256\367\207\274\207\316\252\275\\>\t:\312\355W=\024a1<T\005\335\275K\251\330<\201\236\374\275\303\356\331<8?w\275Ao%=\370\375i=\321\247\003\276\216\257\231\274\032\230\243\274\016\226/<S\232\t\275E%\036=\325Rs\275\2742\235<\321u\306:\265\221!\275\242 \036\276K\314\235=;\356\253=\3744\257\2759K6\274\004\200u=6\331\267<\244\177J\275\251\023)\275\253\262\315=r\365\t<\215\206\310\275\224\013t>5g\203\275\355\237i<\377\322\342\271\365\272\272\273D2\274=\206h\266\275\375]\327\274\237\371\202\274K*\371<k\212\014=\375\232\032=\014\267<\276-\302\377=\240\273\221=<\2740>\351\354\034\272*F\n=\356\027\211=f7\311=\364\024\334=r\347\347=\334y\232\2756\257==\002\332\201\275\003#\317=\360\354P\276\231\364_>%h{\274B@d\276\275f\023>/#\303<\030\230,\274\3454\256\275Yn\236\274\214\272\364=t\370\321>\263\273\271\275\"\220\277\275t\221%>7\220\233;\361\265{=\037\234\240=a\273\345\274\270yS<\332\003\'\276\311\037\017\274\337\314\236>\276\327\325\275\225G/>\'\335\224\2762\273\356\275o\272\327\273\326\253\324\275T\r\322\275_\270\223\272W{\030<\026\320G\275.\244N\2745\025\013>\223|\205\276\335|\240\273\341\327\272<\300\345(\274\nTM<\2570\203=I<C\272\314\325T\274|\025\234\275\301\276\306=\2104\3459\'h\030>n5\036=\033\222\227=\033\270\024\276\3767\313\274\326\307}\275\243xh=k\003\000\276\363~\033\275~\236h;GV\262;\350O\204=%\276\250=,\300?\276\031\367\212=\\rW>\375 \237>\276\021\021\275\324g\342=\303/S=\273\344-=[\340\357=\233\3743>\236}0\275\246N\'\276\023\300(=\365#.\276\323e`= \246\020>\236\376\327\275x.J\276\020\311\220\273hL\216\274\317\212\257=\203\216K\275\202\254\220\275\233KR>.\362\367>\211\005\014\276\340\262l=\000\232\242>aw$\274)\307H>\313\272@=\324\237\"<\316\256\234<\347a2\276\323\017_<\233\241\222>&Q\304\274W\340#\276i\034(\275\320\2002\276\217s\207\274U\010\257\275~$\235\275\251\235.\275\304\266\241=\2166H\275\220EM\274\356g;>^qt\276j\361\310\274\226i\277\274\370\251\303=+\r\r=\206\362\">7\024\352;\255\177\265\274\214,@\275\022^@=\207\0257\274\225\277.>\332@\223=:\035H\275\316\261Y;\224\023\026=\024\026A\276\220\215s=\271\223\265<RG\010\274\351\246>=^\366\302\274\365\014\321<\001 \323\2732\272\377\275Q\344 >\202\217z>\202_\022>^\'\245\275\373\"\005>.]\256\274\276\006\340<\021mz=\r\201q=\224\274\277<\224\317\371\275\211X-<\004\362\034<`\345h>\n\363A\275\317\270#\274\266G\036\275\013\355s\275\376\267o\275\214\373\225=$\225\233\274\014\300\333\274|\372\365=5yn>\332\273\205<\221gO>\301p\370=\331pL\275\275v<>cg\037\275s\223h<0\035G\272\200\213\256\275:x\216;\372[\370=&c\242\275\377 \332\274\2458u>#\214 \276\307\036\343\272\004\365p<\232\257%\274\364f.\275\311\\\207=\324;\035<\2035\332\272\275\356\225=\244#:\276(\346\213=s\347\311<\231I\206;c\243\271<Y~\357=\303\320\253\274\244\371\203\274\271\000c\274\252\023\337\273]\332\025\275\376,\020>&\206\311<W\341\310<\327D\355=n\331\035;\354\347\321\274\237\233\241=bs\332=\017\334\013=\203\376\330<\216\2110\274^O\252\273E\n\234;\202\255\205=\200\325%=+.A=-[{=\341u:\275\360!\212\274\251v\213\274\272%\206=\005*\000=:\365\223<\347\035\001=w\3746=\221Kg\274iK\213=\002\353\000=\003\326\204\275\305\303Q=G\254\331\274\023kR\275\260\"\325\274\260YS<G9\\\2742\3724<\351\307\271=L\264\221\275\277\016\345;6-\207=iC\237\274\272\357\370\274Ez\\=Z\263\310\2743\367\'\275\300\365\202<\354\260\272\274t\037A<\202\314\244:\367\207\014\275\230\333\221=R\220\021=\377\350e=\232S\022;\'/}<\321\002(=0\321=\274\303\200\367;Vh\374<\263`\334<\233G\203=\010g\313\273an\265<\013wU\275<\204A\274\256\033\375<M\312\375:\'Z0=9pk\274\276I\245<R\210\367\273\332\272w\275i\343x<I\022\'=of\336\272]\021F\275\270\275\310<\005!\241;A\363h<\"Z\316=\302\330\204<\367]\027\272\331\201 <a\243$<\332\325\362<I\3423<P\251\264<v\244\276<\013\241d=>:\242<m~q=h\202\013=eM\351=fe]=\022!\023>\202\002)\275\273\375\243=O\2069\276I\220\243\272+\355\224\276\r\213\315=c\336\006=\254\312\352\274\034.\'>\317c#<\362\023t\275\355l\362;\253\231\177\275\353\372E\274!x]=\222\234+\275\031\3700<\321C\355<\272iN<Q\300}\275U\t\364<6\334\263\275\"H\215\273\332K[\276^]\320=x\352B\274%\207t\275\344[\254\272\255\201\254\276\333\252\244=T\330\235\274Y=\255<\030\335\223\275\343\003y<\312\013\223\275\363\202\206<i\022\247:\337\005\243<&\000\205\275\325\365\267<\\\311\231\274<\266$\275\024\\\203\274\373\264\214\274\376\366@\274\234\214\212\275\027\204\340\274U\263\361=\024?T=\231\311\367\275\223\257P>\2731\267\274p\344\243\275\\H\212\275\002\304s\274\345<\246=q\310+\276\036$Z\274\264[\315\274\260b:=U\002\247<\023\226\274=\227\263\"\275I\302\274=%g\355\274\026TZ>\211\215M;,j\205\276~\310\017>\307\321\355\273Hc\270=+\257\227>\007%\024\276\247\204\240\275?P\242>.*\215=A\021\317\276\247\305\340>\344\001\310\275\251\341\212\276\375\032?>\007\240\226<\236X\271\275\220\326\354<K\037\014\276\313\364\002>\017\216\255>Y\214\334\275\332\237\030\276\270@&>\033\331\357;\023nM\276)\025C>\177\352\027=h\217\t=R\373\244\276-A\204=\344\030\211>`\313\346\275\013\357\264=\336\'\324\276\2644@>\304\237H;\374r\265\275`\'\332\275\035\025\257\2756a\302\275:\317\234\274r\251\254\275\202L\005>\265\222;\276\367/(\275De\223\275\225\221\001=G\243\333\273\273@\033\276\206\230\225=\244C\322\272f\251V\2752\256\351=\010\"\251=\031\264\022>\177\327t\276$$\\\274\311\3238\276\024/\312\275\273`\341\275\261\224u=\306\204P\276s\363\274\275\327\010\210\275\347\327\257<\03769\273\276\020\303=\021\363%\275\026|\305=}\006\357\274o\016}=\361$\222\274\261\347Z\276\203-\001<jo\222\275dQG=\350\350\202>Az8\276\376\225\000\277\217/\311>wH\332\274\256i\306=\022\336\313>m&\222\276\245\010\034\276\255\305\004\275\262\303\213=\373kP\274&\375\017=\322\214\251\276i\354\007>\265\235\271>bN\037\276\177=\021\276\262\n\016=By.\273\267\273\335\275\334\203Q=\367M\004>\212)\331\274\003\356\275\276\205\340\356\273Q\253&>\026\266\217\275\254^e\273\303\363\331=\333D\363=\373\216<\2764\215&\275\312q\037\276;GR\275m\325s\274\t\251\214\274!\254\035\276\320\332\331=\372\003p\276\266<\245\275\370?M\275.\031\237=\333,\262<\375%\r\276\313\t\376<\226\004\302<2\233\254\275\340\343<<\336K`=\250z@>\230\327[\276G`v<\243\211\306=h\214l\275\336\271\347\276\365\004\257=\301\226\256\2757\230)\275W\010\004\275\246\372H\274\215\336W\275Iv\332\274\007\007\245\274\3014\271=|\275\271=)\302\\\276b\"\024\275\256]\014\274\013G\351\275\'\263\347\271T\335v=\356\220\016>-\210\203\275\023\235\316\276\251i&=\"\315\301\274^\331\246>aRw=\355\221D\2750\034\020\275\243\277*\276v\250\262<\231h\371<8@\337\274\327\210\230\2753\240\330<D\252\007>\037\261\203\275\324\323\243=\npI\276\3263\237\274c\217\327=\257M\004\276N\036>=!\014\360<\251[0\276\344\342\255<\255\316!>U\260\252\275\301\013\221\274eJ\250>\337\031!\275\305(\210\272\307\263E;\236H\337\275\251\257\305\274\270\326G<\006-\004\274\221\"\026\275\201\260\336;YR\360\275\025\203\226\273\027\3342=e\246\210\275\323\225\004<\216;\327=\205\356x\275x\230\242\274\004\007\233\274i\202\337<\025FL=sEz>\305~}\275X\333\243<\r\255K>\333Y\321\274\303o(\275P_@<\357\355\032<=\226\344<\215\331\276\274C\305>\274\344\037\375\274\326\026\203;E\321S=\211-\371\272\364\016j=\353\000s\275\3150~\274\256\263\211\273\202^g\275\177c\265=\276\024\320<\336\341\324;\341p\351<\342*W\276\367r\016\275\370\343?=\251\026\346=\347\321\221\275d\016\037=\303\375k\273\277\017\214\275{\004\301\274\005\001O\273\016\032b\274\204!;<n-2=\332\235h\275S\311\252\275\213)\347=7\331\222\275\370\317\017\273\237\027\251=y\320j\275\\\356@\275I\244\323<.\2303=L|.=\345{\351<\023\245d=i\230D=\305\340\250=\022#\254;\217\0042:v& \273\311\337\026=MY\253\274U\324\000<\331\370\240<\220\361t<(y\200<\033v\275<\001\213\277\274\312q\232\273T[\211\274a\3728<{\223\244=\2531\315<&\253\374\274\252\214\214<\203H\271<\216}%<\362\004\264=-c\250=w\033K\274WI\255\274\237a$=\215\036\025\274\306\210\021\275\273gn=A\330o;\304\220A\274\016\217F<\002z\373\270s\250\020=\020\375X\274\3404\256\274-\327P<\317s\322<x1+=\200\311\341<\201\030\017=\013 \263=\205\233\033\274\245>T=\203\243%\275\301\203\327=\302\263\233\275~\336\000\274[\271 \276\302\t\305\275w}7=\240\332\355<\226\307\234=\2403\251\274\342\224)\274\350\256[\275\212c\230\2753Ml\275,\212-\275Ui\215<vi6=\201B\211\274\231\215\202<\002\t\n:\336\004:=\361\255\006\275\330M\376\274\232\316#\276g\250~=\230\202\035;\371 0\276 A\251\2742?\347\275\362\256\371\273\212\313\r\274\244\207R=_\342\241<\334\324\243<\275\2508\274\355\346\346\274\306v\022=\003\037&\275@\271\246<\032\376\003=\324\324\t\275\3440\211\274J\253x\274g\300\217;\363\263\311\273\222\344\266\274\347}\t;\350\312\224=\264\310\002\275\332\261\325\275\\\264X=(\374\020=\017\357\276=\"#\221\275\362\366\242;\240\275/=\031\244\211\275\205\260E=B]\360<\021\353\007\274\347\205O<\357\020\270\274q\343\006==\244\004>\200\363\263\275\001H\013\275%BT=w\350\315\2762\331\266=8\366\251\275o\262\262<\020}?>l\211\305\275Nf\264\274\272\204\032?\252V-\274\261\262!\276 k\215\275\360\212\334\274\027\241\353\274@o\360=\n\'\217<r\350\207\275\313\332\206\274\367\r\347\275\307F\205\275G\370\244;\026Q\347<\031.\205\275b\001\231\275\335\374\323<\\\353\256\276\241\032\340=vME>\220\200i:]G\244\2767\024\325=\226\3709>\3452C\276\307\366+\275\343x\016\276<\346\243\274tX\037\272M~\232\274.\341\317\274\002>\217\275b\370\207\275cc\202\274D)\375\274\232\"W\275\365R\213\275\001$\014<\351\256\375\2742\\\365\272[\005<\274\203q\201\276\371\254\302<\304e\361=7\001D<-\036\024>\302\002\252=\003\212\005\274\321F\333\276G~\305\274\203[\374\2735p\'\276\312\222\200\274\303d\204\273b\215\376\2751m\271\273t\255\350\274\tw\334\273\217\2414:\r\321l\275\217>\307<\373{\002>LL+\276\344\251\237\276\311\014\032=\375\254\362\276\366\'\235\275\264\242\271\275\367\271\243\274g\353Y>\371\271\023\276X\227j\276\312\347\016?\304\374\376\274\263\256\323=\365\247\224<\353\366\260\275\274.\377;f\\\376\273\373\326\222=v6\340\273\212%\306\274\237\001{\276x\315\337\275\014h\026=\004\1775\275\024\360G\276{\314\223\276/S\200<\265\\\263\276\253\256u\275p\323q>\351\024<\275\316\200\226\276\341=\264=\232\206.>\224\326\363\275\237\204+<3\267\030>FG\355\274\"^y\2749\310\341;\350\201b\274I[\233\2752\003f\274\220\307\201\274\3063\365\275\230x\206\275\214*\252\275\345(\211\275\374\222&\274\350\205\364:\364\251*\273;\310\253\276O\340\343\274\307\336\001>e\222@\275\231\244$>]\334\333=\312K\n>\261\273\215\276u0\273<3#y=\377d6\276\032\330\244\275\326\200\032;/$/=\2620 \275_\2054\273\264\007P\274\211\r[\275@]k\275b&\242<TP\001>\337I\000\276\301\335\262\276\204*m;\367w\326\275\001\335\005\276nm\000=m\245\370\274\241xN=\226\356\357\275\375\nr\276\212\222c\275\250\r<\275\036V3>\246k\024=\356\330\330\274\365\344\303\274\362L\276\275\007\026\000=\325\272\213<VZ\352\274sVM\275\220\025\327\275\222\007\264\274U\243W\275\020&\273\275\276\033\220\276\364\033\030<\356\253\245\274xG\335\275\002.\204<D\307\006\275\323!\026\276\2766(=5\003\255=\231\004\257\275(\036\251\274u\230=>LP\351\274\007%\2769\2519:\274\354\356\274;\374\035[\275\361\211\017<S\351\200:\232\216\361\274\240d\202\275}A\221\274\267\0130\275$\262\266<\331\300\313\274\324<>\274d[.\275E\007\031\275h\227\373\274\365\223N\275\3254\317=\271\373x=\252\340\001>\017\252j<\266\245\207\274\223^\210\273\312\216\366\275\321\272\202\274\335G\272\274v\003\245=\233j\370\274\200\371b\274\374\233y\274\367\244J\274\007\260d<68\026<\227c\315<\257\205\207\275=*\024=\276\240\034<\360)N=I\260\231\274\363\270\001>\256{\370\274c\250\221\275\203\025\035\275p\254\343\275\326S%\275\217\214\300:\303\266\261=T<&<\233\026\372<2\233I\274u)\200\274\027i\273;%\243\325;\327V\252\274\230@\377<\244\212\212\274=R\251\275ZG\225\275\346GM\275\200\322\\=\306P^<<\256~=\334=\230\274t\241\242\275/\245\220\273\306Y4={\223\250<\333\2649=\325iG=\260g\366;$\250\017;=\337\272<\201\331\272\273H\235\267;\375\311\343=\022\224\277\274\270B\203<\177I\301<\213\0055<9v\252;$]\204=\317a\331\274\322\206\204\275\232\253\026=\252\026\215\274\351?R=\206\3014=\230<\305\275\345V\003<\207\317\272\274\364\0204\273\247\301\245=|B\205=\025\347\017\2754\337\003\275\202\334\007<\020\032\327\270\305\256\221:b\030\261=)\326\227\274U\321\035\274\312\355p<\363\307u<\253\2139=\342Yk\275e$\032\276WZu\274)\261\253\274\227\r\030=\025\020\207>\364\350;\274\232}\202=\"Kr\274\257\2455\275\235\266\r<\002\367\243=\204\354\033\274\007\332_<}k\214\274\350\031d\275\267\255\264<\3663\'<\022\240F\275\013\372\022\275\215\225z<\3122b\275]c\210\275\361\256d\275\236\023\200\275\206\210\210\274v\377\205=\350\341\2469\233\260^;y`\330=e\312\026<7\'\324\274#\003[:j.\314\274\273\353\014=\230\206\223\274K\356\004\276\230N\331:\332\'\325<r\020\031=\304\313X\274\333\004\340<\254\014\333=\306p\303<\343<E<\251w\014<\005\205\024=\226l\036\275\\7\004>Ju\002=s@5\274\330)\357;\005@\253\274\330\271;>\204\275\335\274\005\375 \272i\355\304=>\210\\<\274\363\327\275\227`\366\275\373\022\005>m\261\264<N\300\025>\303M\332<\330\326D<\ne\177\274O\215\376<\343\007\"=T\313\250<\032Z\364<j\256\013<\202\306\262<q\321r;\\\304\002\275\030=\336\274\273\210\r<U\355j=\306\022\255=\270\250\240\274\000\237`\275\300\246f\275\371s\276\274\005\235\245\274!pM=m\026\350>AQv;\371\226\337\275^J\204\275\314\t\020;\345@w\273ew\016\275)x\206\274\"\303\006;\310\177\r\275\177\3109\275\212\005\312\275\257\253\301\275\202\277\363;\214\002W<E\375\362<\330\217\257<\242\252\261=\345\244\200<\270*\336=\034{\345\274\3479V\275]l9=\254\2162=f\327\027\276{\272\004\275\325\353A\274\026Y\325<\310\356\027\274\"1\213\274\031\245\203<\2675\212\2744\314\241\273\203\177\273\273E\306f=\005\255\214\275\346\221\306=s\035\266<\267\304\344\274\262\036\240=A\254\340\274\034\370\034>;7r\274\264\026\207=[?n=\323\002\017>\351\253&\275$\313\034\2761-~\276\344\366T\273\365\224\240<\207\n\252=a\364\275<\00650\275\311x\014\275 \253;=yA\210<\344\221\030=\343\237\376<\351\205D\273\346\277\202\273\264\244j\274\243\3234\2753.\221\274\006\301\233=\270\363E\275\033F\256\2754\232\034=C\217\312\275\314\354!;\355\233L\275\213\3355<{[/>\201!<:\206\306\306<\\!H\275\223\260\\\274\324\366l<?\033B\275?\224\230\272y\226\356:\255\354U\275be\256\275\276\240\367\2757\355\207\275V\274\235;$F\312;6\311\212<PcU=j^\";M\014u\275\216\254\342=\226\215\\\275\257\350w\2742\275\220=2\350\272=\251\273!\276\t\255\316;j\\v=\035\362\216\274z\267\235<\307\376\220\274\263\214l=D\206V\275\031\026\205<\210J\247\273\331v\267\273[=\261\275\204i\360=.\212>\274\246\213\200=\365D\252=\260\374\346\272+#-\274\347\021\016\275\nmg=6\331\000=W\017\033>bS\372<m\022\316\275\022\302;\275\33109=\370\177\'\275g\326\236=\210\261\372<\306V\324\274.\323\276=\313l\210;6\260/<\003\261\276;\\\257\250;\373\247\215<4&\2626\355\367w=\367\\3\273Y\271}=\236h\227=2\330i\275*\327\'\275;\275\002>\016\005\271\275PD\260\274t#p\275\334Y\010\274\364\234\377\275|Y\2329o~B=,&\356;\261\253\323;\351\262\004\275\273Tf\275\001g\362;+k\345;\336k\324\274\213\307\307\273\224\210\254\275\212\260\276\275N\366\243\272W\325\203;\234/\223=\004\367Y=l\223\275\274pV\'\275Q\341\311\275/\001\216\2754\203\246\274s\0028=\273\'\267\274ss\022\274Q.(\274\353\330\033=\206W<\275\004\226\221<\004u\302;\326Ct=V\247`\275\363\202a<\264\014;<\020\247w<q\022m\275\037o\306=\221D\020=\251t\265=i\331\004=\033\370\226\272e\037n9E\245g<\241\213\302\275\027\200U<\336\334\334<p\303\317<Y\276\275\275\222\237%>\001\375\202<0\376\002;\233.V<9P<==,\274<\252~\272=\311$\036\275\252\266\210;\250\313\223<\323\3766<\0040<=\240,\371\273V\326\t<\354h\021<5\374\233=\313\337V=7\242\234=\225\035#<\235;Z>\032\000\263\275\375\025I\275\325\354|;\330F\017>\010\036\216\274\236\001\342;\324\251\256=\2225e<\205\264\326:\276\332_\275\325\241\245\275\346{\036=\277\036T\273T\355\356\274\206\304(=`\212\n\275m\327\247\2756\247\026<\342\354\255<\247\024p= \253\242<\270\021w\273\220x%\274 w-\276\275$u\274\037g\032=zr\371<,w\245<(\034\367=\202\315\230\273D\202\357<\021\370\226\274_qw\274\312\031\031=\345\343\"=_W\214\274)\353\032\273\377)6=\262\204\021=&\373\007\275\255\336\302=\326IP=}\003\025=D\233\217\275\347\t\233\274Q\245\355<s\306!=\177M\330\275\266`\202=\177\332\034\275\037\241\334\274\324\217~\2756h\244<z\024\030\273\275R\333<\356T\370<\021kd<\030@*=ff\222<\270\306\361\274\021\264*\273\212\350p=\001R\n="
      }
    }
  }
}
node {
  name: "conv2d_1/kernel/read"
  op: "Identity"
  input: "conv2d_1/kernel"
  attr {
    key: "T"
    value {
      type: DT_FLOAT
    }
  }
  attr {
    key: "_class"
    value {
      list {
        s: "loc:@conv2d_1/kernel"
      }
    }
  }
}
node {
  name: "conv2d_1/bias"
  op: "Const"
  attr {
    key: "dtype"
    value {
      type: DT_FLOAT
    }
  }
  attr {
    key: "value"
    value {
      tensor {
        dtype: DT_FLOAT
        tensor_shape {
          dim {
            size: 24
          }
        }
        tensor_content: "\241fz>\336|\246>\231\277\277; \350\001>\306\241\016>\2331d=\345{8\277t^\336=\010\334.\277\320!\253=c\226U>\237.]>\0326\257\276\005\002@>\350\t\347=`YW>Jh3>\275L\252\277U\021\202\276?!\351<\360\357\307\275fT\014=\327\353\202\277\n\367\235\277"
      }
    }
  }
}
node {
  name: "conv2d_1/bias/read"
  op: "Identity"
  input: "conv2d_1/bias"
  attr {
    key: "T"
    value {
      type: DT_FLOAT
    }
  }
  attr {
    key: "_class"
    value {
      list {
        s: "loc:@conv2d_1/bias"
      }
    }
  }
}
node {
  name: "conv2d_1/convolution"
  op: "Conv2D"
  input: "input_1"
  input: "conv2d_1/kernel/read"
  attr {
    key: "T"
    value {
      type: DT_FLOAT
    }
  }
  attr {
    key: "data_format"
    value {
      s: "NHWC"
    }
  }
  attr {
    key: "dilations"
    value {
      list {
        i: 1
        i: 1
        i: 1
        i: 1
      }
    }
  }
  attr {
    key: "explicit_paddings"
    value {
      list {
      }
    }
  }
  attr {
    key: "padding"
    value {
      s: "SAME"
    }
  }
  attr {
    key: "strides"
    value {
      list {
        i: 1
        i: 2
        i: 2
        i: 1
      }
    }
  }
  attr {
    key: "use_cudnn_on_gpu"
    value {
      b: true
    }
  }
}
node {
  name: "conv2d_1/BiasAdd"
  op: "BiasAdd"
  input: "conv2d_1/convolution"
  input: "conv2d_1/bias/read"
  attr {
    key: "T"
    value {
      type: DT_FLOAT
    }
  }
  attr {
    key: "data_format"
    value {
      s: "NHWC"
    }
  }
}
node {
  name: "activation_1/Relu"
  op: "Relu"
  input: "conv2d_1/BiasAdd"
  attr {
    key: "T"
    value {
      type: DT_FLOAT
    }
  }
}
node {
  name: "depthwise_conv2d_1/depthwise_kernel"
  op: "Const"
  attr {
    key: "dtype"
    value {
      type: DT_FLOAT
    }
  }
  attr {
    key: "value"
    value {
      tensor {
        dtype: DT_FLOAT
        tensor_shape {
          dim {
            size: 3
          }
          dim {
            size: 3
          }
          dim {
            size: 24
          }
          dim {
            size: 1
          }
        }
        tensor_content: "\327\231\310=k\217\007>jTd>\273\027\267=\327p\300\275o\206\021\276\264\356\243\276\307 S\275L\275.=\243\rE\275Q4\340\275\035\345\351\274!+\240=\250\254\236=_P\026\275\261\023L\275\3171<=l[\021?\332\247\327\274S\\\277>m\271\014\277\030k\303=I\010\022\2775\260\264>\336\333\346\275\232\364A;\371\313n\275B\032\321>\0207\237>\005\275Y>A\227g\276\021\301\256\276\273\315\227\277\000xL>\346\n\016\277\211\322f?\010:\303>\212(\205\277\323\345i=\022\342\220\276\310\014\261=\314\247{?3A\317\275\030\233\006\276\2649\300\276>\264v=sE\334\276=\307J?\324%\370=\203u\275;l\370\000>*]Y\275\243\226\222=\256\206\230\276\361?E\276b\230m\275\212\226~>V\233\300>,\334\222\276H\236a\276rS\205\275mB\252>\230]v\273\203\006\256\274\234\261\032<ne\r?\336\334\016=6\273\334=\016\322\243>\014\324\216=\252H\016\276\"\204\244>\036\204\211\276\202+\341=\r]H\275\336\347\266>\353\002u>I\201\202?\350\373\032\277\202\226-\275\353\003\035>\355\231\256>6P\010\276\025\2620\276|Y\307=B\323\036>H\230)>\010\244!=\253\225\316=\000L\366<\235\263,\276\261\213\343>\314\'j\2755^o\276\272\321\363\276!??\276\206?]\277W\335\232>\271!v\277\225\372\243\277+\034\341\277Y\344\300>\036\310(\277\325\347\235\277\251\203.\277\027.=?A\245\207>{\235\254?\243\267j?Ir\334\276\371G\034>\355O\214\277\310\233\200\277\241)\213?\361\344\221\277\311\025[\277!\200^\277w)\217\276j\227\226\276\323\212\033?|\243\332>\000\222\241=\251\325\220\276\325\200&\274\351\361X\276B\225I\276\306\321\007\276rf\352>\307\337m>\001`&>O\024\324\276\202\354\023?\333p\376\276\350\215D?\017\037\236;y\250/>\243\206\307\273\347\014s?\314\007?>U\031\003\277\322\3160?\n\3158>\274\366\312>\353KH?\rkx\275\216y\250\275\246\211\302=\3057k\276Y\240#=x\023=>\177@\271=\246\010\333=\330\264\337<\324.\256<\206\202\242>\225<\241\276\3755\020\277c;\257\273\"(>?\020=\266\273NcP\276\'\2470>q\316\230=\305u\301=[\316\273>\022\225i<\300r?>;\027\006\277\203\356\024\276\303\001\272\277&Fy=T9\031?\367\263{\275\200i\207>\353\255\014\274:[n>\'\377\231>\223g\246\276\205RZ?\204\331\301\276\242E\001\277Q\372\247>\2450\367\277!s\020=\360\263\242?9\267O>\020\205\"?\333\273w>\274\031(?N\326\003\300\273Ro??\270\332\276\271\177%\276\335v\356>\212\006\317\274\232\251\246\276i/\225\275:\300g>\253q\206=\236\037-\273-i\225=\263_z\276A\300w\275\3668\277\276\021\023\235\275[\003G\276\374\031\233>\262\027\355\274Q@!\276V\375I>c\226\377>u\326\230\276i\361\273<\374t\022\277\272\210\361>\343+\230\275"
      }
    }
  }
}
node {
  name: "depthwise_conv2d_1/depthwise_kernel/read"
  op: "Identity"
  input: "depthwise_conv2d_1/depthwise_kernel"
  attr {
    key: "T"
    value {
      type: DT_FLOAT
    }
  }
  attr {
    key: "_class"
    value {
      list {
        s: "loc:@depthwise_conv2d_1/depthwise_kernel"
      }
    }
  }
}
node {
  name: "depthwise_conv2d_1/depthwise"
  op: "DepthwiseConv2dNative"
  input: "activation_1/Relu"
  input: "depthwise_conv2d_1/depthwise_kernel/read"
  attr {
    key: "T"
    value {
      type: DT_FLOAT
    }
  }
  attr {
    key: "data_format"
    value {
      s: "NHWC"
    }
  }
  attr {
    key: "dilations"
    value {
      list {
        i: 1
        i: 1
        i: 1
        i: 1
      }
    }
  }
  attr {
    key: "padding"
    value {
      s: "SAME"
    }
  }
  attr {
    key: "strides"
    value {
      list {
        i: 1
        i: 1
        i: 1
        i: 1
      }
    }
  }
}
node {
  name: "conv2d_2/kernel"
  op: "Const"
  attr {
    key: "dtype"
    value {
      type: DT_FLOAT
    }
  }
  attr {
    key: "value"
    value {
      tensor {
        dtype: DT_FLOAT
        tensor_shape {
          dim {
            size: 1
          }
          dim {
            size: 1
          }
          dim {
            size: 24
          }
          dim {
            size: 24
          }
        }
        tensor_content: "\215\241\241>X\003s\2749\273\013?y\302\363>\253\275\215=M:F>\013Y\206\276\3306\240>}\264{>@\256\036>W\251\026=\205\225h\276\360S\315\276?\005(\276\036\240\245\276\026\223\365>\270>\271=\276\\\217;#g\235>\000\356><S\0109>\203\3329<\373*\276>\236Gy>\364\207\200=\271\256!?\217\032\314=\031w\257>\207\364\233\274\212?\214\275\341~+\276}D\331<\237\227\253\27589\226>\365\276\230?\361%4>,\333Q=\205\000z=x\362\003@\020\"\233=\352\311?>\326\350\026=\270\266:\275h\357\200\276\321\333I?D\256\\\274q\252)\276\245HN\274dn\316>\261\030\207=\212\216\250>\004\352\222\275\327h\330=T\202\026\276\003\217\222\276\037\275\026\276\rvG>\225H\244\276\210\014|>^\204\013\277\r\271<\276l18\2763~\250\275\260\006\025\277^F\363=x\256N\276\344\243V\277\336\236\036\276\276\257\331>\016\n7\275 \271\033\276hX8>\3232\005?U5\205<\264\np;FJ\311>\r*\010\276\300[\026?\232\307\314>\"\034\304\275\336\302\253=\317\310b<\216\320\345\274\370T\200>\207r\366\2765\301:>\3020d>\263I\202=\263$\312?\232T:\276\005\027|\277K\022\371>)\013\262\276S\331\014?\010\265\213=5p\376\276.\202\257<\032I\217\275\254\202r>\020@\262> \340\341>g#_?&s\254\2753\206\032>\276\020B>\320\261k>7\233\014=\\\302V\275W7u\275\267,\221<q5U\276\232\331\241?31\034?s#\331=\024/L\275\346^+\276L=\001>\373\334\256=\307c>?\242t[\275c}\'?+:H\277\363hh>\000\304\007??\326\251=\016$\r\273\200\272Y\277\003\237\314>\227\003-\276\214\364%\277\362|\324:\357\177\354\274Y\242\201\276G\256&\277\330\215\355\276\254\276F\276\215\371\307;xGI>\332\013>\275O\321\r<\027\255P\275\002\332\206\276\005M\220=\214\033\022\277p\233\002\277\301!\360=\353\026\264>B\310)>\246.>>\326/\366=\272\262\304>\025\343\232>\236\326T\277d\372\334>\320w\203=f\353\025>Pj\310\275@\215!?\347d\365<\321\203\370\274\272\347\023?U\025\330=~\232\362>\267@\275>>\355\t\276kc\317<\352\327\252>\363e\020>z,\355\276\364\312_>2\2678>\203\323\247\2769\206E\2763\206\240>\301\023\351>e\2756\276\335\"\023\276\313\221\262>\375\010V\275\274\361\326\276\367\303\320>\273\305\211\275\263A\225>7\004h=\322\005\016;>\270?>\364`\232<\234/\371\276x\353\303\275\273.\212>f,\210?<\n\000>\314\375\222?\226<u>A\215\347\275S4\001?\010\302\315\276\206d\010\2767\360\006\2761\0025\276em9?\340\326\323\276\310\367m\277\212yc\276\265P\355\274\245\"\177\277\0350E?\005]\340=\t\264\225\276J)\313\272F\322\305\274\260v\356\276\r\355\016?\3337c\276\354V|>\261K\213=1[U\277(\360\251>\357\256\254\276\241\260\351>{\205\357=D\213\247\2761^,=\322\266\216<\033\022c>\326i\247=\024\303a\276\374\251\266\275k\320\324\2768\032%\2770]\341>\013\304\"\276j\243\274=9#2\275P\005\226\276s\230:\276\214\336\023\274\256\335N\276[R\026\276\003&\250\275c\316\004\273\366\264\366;{\342\254=\365\341\340>\255\344C\27635\311=\032\376\334>\025P\203\276\310\017M>\260\202\271=y\363\261\275\3364\024>\205g\261\276kg\360={\332\351?\264.\346=s\nk\275]\254\255=\204\004i>\3603\332=El\334\275\255\020\001;\206\023K\274\363\320\003\277\307\327(?\367s\007\277[=\272\275\322.\345\276\270?@>\371\362}\276-.Y>!\006\253\275\277$\252>g\037\236\277\024\307t\277b\0026\277Sk\352=\336_V?E[B?\303\303\003\276\222a\031\277P,+\275\232Cs\276\361\025\200\276M$\335=M<\263\275\270\207\217\276\354hN=\272\327{\276\320\'\377>{F\306\276\007H \2760\261t>\301\360\305\276\243W\017?\377\214\223\276\343\243G?\022$\225>r.X\274]Z\026\276m3\216\274\304\270<\276\367{6\276x\032P\276n\320\273>\240\367\221>\226=7\277/\367\252>\307\233\276>\300\332D>J\017e\276h)\010?>\3717?\034\265\350=S\320\003\276\000\344\321\276\342%\243\277QC\204=.\310\366\275\243\364\261>\311[\202?;t\366\276%\346{\274\177`\233>\255I1\277\273\272\236\277\032u\247=m\375\224<\026\314\275\275rP\212\276\005a@>\323q)\277K\332P<=\006\245\275V+\372>\251\021\002>\010>\023>\2350\371\274\354 \273\276\325\345A=\246R\371=\221\241\n>vF\200>1\331\354\276\241\311\257\275\313\226q>\215j\300\275\235j\365\276\226\201l\276)iM?+\244f>\312\r\034\276D\253\237?\206+%?\t\036\177\276\263\312\307>\264\357j>\343:\017@<\n\236>\023Q&>\337g\333\273\234U\n\2762\370\247\275\272\215\273=$>1>\357\323G=\030C\315\276\025\013N?\335\333\334\275z\204^>\342(\005=kj$?\337\201\031>\021D\234>\320\343\264\274\323)4?\311\030,>)A\346=\005\206\216>1\276\004?\214O\003>p\246l=\323=O\276\253\3479>-K\313>\234\224\271\277Jb\261\275z\026\007>6\224\341<w\033\216\276\204*\263\275\035&\017\276U\337\311>\276\0046\277G\326/= (\363\275\203!\301\275\027}\326=\300[\005?\001\201w>\3351\263\277\271\027\347>\013\004\254>w:\023\275{\035*>\320\263\005\276\232\306\014\276*\210\272\277\177\233\367\276_\307\311>\nT\317\2753P\037=\006\216\344;b\352\273\275R\203\305\274\216\203\344\275s#\255?\376\237\276>\247P\372>\032q*\2762[L\276c\034\227\276\350\352\347\276\000\340[\276\331,|\276\352\362-@G\007\271\276\317\257\254\275\014+\313\273\240/\230\274z\212>>\245\324\250\274C\311\245\276\320\277\024?G\314\323\276\323pW\275hF\362>\277\007\035\277\232\311\232\276\230\031\225>\206\2622\277\233\367\'?\220Wk\276U\020\025\276h)\266>X4<?\014\300\225>Z\252\363\276\224\350\351=E\240\205>\204\322\224\2767\302\266<\371;\320>G\241N>\216 =\277\300\327\232>\022\004P?\215\013\020\277\230\350\353\276L\262\377\276\273\300\335=\210\300\316<\364G3?\374\310\027\276J\032\007>\027\274\330\276a\203}\276\265F\210\276.\374/?\006\363\321\276=q\t?NK\245\275\201g;>e\365H> ]\016\276\374= =&d\330=\0017\r>3~\023=\337A(\276\267\271\331>!\231\316=U\371\354\276\336,\\\277\351\013\014\277&T\243\276s[!?A_\235>\345wX\274\0045Y\277\177\035\200\276\370?\331>\224H\t\277\353\212\355\274K\207\251>l|l\276\003\n/\277\212\023j>\247\361\262<(X\307\276\002.\034\277\364O\025\274\273\364\222\275\221\200\314=\211|\307\275\343+A\276\217\030;?\301\217\236\275\003\344\244\273\356\013\024\276\371S\">v;&?\037\352\321=\256}_\2768#V\2756K\224>\312\033\007\274\315\206\266>!9\330\275kW]=\002\225\260>\240\307F\276\363&-@\343\341\320>6-\330>\347 \020>V\0229\276\246\n\324\2766e?>\3671\313=\25255=p\032A?FY[\275\316bk\274\234`W\276\365\r\306>\333\242\377>>\323W>\211\263\252\276\370\262\356>e\356\021\277\013\301\305\276w\237\236> \254\027?\035\'\215\277\303\230\365>\270Z\237\276\326\026\014?\252\321>?\366\356\002\276_Qp\275\035\214p>2\253\330>]\004\033\277%\014\265>\204e\027?\257\243N>;\342C>\275\236\272>\030\360\273>\314\375\365>m\343\014\277S\021\371\276c\316z>w\243\237\276\376/p\276,\222\302>?\030\212>j\003\246=w\323\036@\246\2112?\251\246\216>\376\031}\274\261\342\007=\022^\313\276\322\n\351\276"
      }
    }
  }
}
node {
  name: "conv2d_2/kernel/read"
  op: "Identity"
  input: "conv2d_2/kernel"
  attr {
    key: "T"
    value {
      type: DT_FLOAT
    }
  }
  attr {
    key: "_class"
    value {
      list {
        s: "loc:@conv2d_2/kernel"
      }
    }
  }
}
node {
  name: "conv2d_2/bias"
  op: "Const"
  attr {
    key: "dtype"
    value {
      type: DT_FLOAT
    }
  }
  attr {
    key: "value"
    value {
      tensor {
        dtype: DT_FLOAT
        tensor_shape {
          dim {
            size: 24
          }
        }
        tensor_content: "\326`\236>8\023B>\346\230\334>\023nY>$\213b>\350UQ?_%\221\276Xu!>\242\364\235\277\rt\212?Q\253\367>\326\251\240>\327\020\316>q\2527?\346X/?)\370\210?Z\347\224?$\001\376\277\304\026K?\312Y\310>Bi\217>%\247\207>\357\347L?\356n\222>"
      }
    }
  }
}
node {
  name: "conv2d_2/bias/read"
  op: "Identity"
  input: "conv2d_2/bias"
  attr {
    key: "T"
    value {
      type: DT_FLOAT
    }
  }
  attr {
    key: "_class"
    value {
      list {
        s: "loc:@conv2d_2/bias"
      }
    }
  }
}
node {
  name: "conv2d_2/convolution"
  op: "Conv2D"
  input: "depthwise_conv2d_1/depthwise"
  input: "conv2d_2/kernel/read"
  attr {
    key: "T"
    value {
      type: DT_FLOAT
    }
  }
  attr {
    key: "data_format"
    value {
      s: "NHWC"
    }
  }
  attr {
    key: "dilations"
    value {
      list {
        i: 1
        i: 1
        i: 1
        i: 1
      }
    }
  }
  attr {
    key: "explicit_paddings"
    value {
      list {
      }
    }
  }
  attr {
    key: "padding"
    value {
      s: "VALID"
    }
  }
  attr {
    key: "strides"
    value {
      list {
        i: 1
        i: 1
        i: 1
        i: 1
      }
    }
  }
  attr {
    key: "use_cudnn_on_gpu"
    value {
      b: true
    }
  }
}
node {
  name: "conv2d_2/BiasAdd"
  op: "BiasAdd"
  input: "conv2d_2/convolution"
  input: "conv2d_2/bias/read"
  attr {
    key: "T"
    value {
      type: DT_FLOAT
    }
  }
  attr {
    key: "data_format"
    value {
      s: "NHWC"
    }
  }
}
node {
  name: "add_1/add"
  op: "AddV2"
  input: "activation_1/Relu"
  input: "conv2d_2/BiasAdd"
  attr {
    key: "T"
    value {
      type: DT_FLOAT
    }
  }
}
node {
  name: "activation_2/Relu"
  op: "Relu"
  input: "add_1/add"
  attr {
    key: "T"
    value {
      type: DT_FLOAT
    }
  }
}
node {
  name: "depthwise_conv2d_2/depthwise_kernel"
  op: "Const"
  attr {
    key: "dtype"
    value {
      type: DT_FLOAT
    }
  }
  attr {
    key: "value"
    value {
      tensor {
        dtype: DT_FLOAT
        tensor_shape {
          dim {
            size: 3
          }
          dim {
            size: 3
          }
          dim {
            size: 24
          }
          dim {
            size: 1
          }
        }
        tensor_content: "\016Y\007>\326?W>\273\\A\274\201\276S\276\033\354,\277/s\363=\221\204b\275\304\236<>\220\220\034>c:J\274\177\247\344\276c\267\244\276\256\016]\276\rm\010\275;\346\251\274v\033F=\032\374\217=Z\360Y?B\250\230\274Tb\301>V\200w\275\211\340\227>~\264\257\276+\205\235>\220\273\343>\321\336\n?\311#\240\277\tO\343=\306Z&\277\361\243\025>\211\202\353\275\232!\236>\370\000\307>\341gw?\273\237\321\276!^\373\276\023\270;\276\326\305\027>\"\037o>\325\031\r>do\">T\032\353\276]z2\277\324\245E<=X\005\2752\372\021?\240e\026=\220\034\377\275\306\201\306=\234\027\246>(\364$\277D\335\227>\204\325\327\275\236F#\276\352A-\272\340\370\270=\214\003\212\276\241(\363>S\234{\274\221W\253>\004\033#\276\214\356\r\276w\177\224>\277\007\244\275\361\351\003\275\017(o=\021`\032>?\2044\276\222_\'\276,\016d>\235\270\221=\017d\344\276\245B\347>\016?\305>\327V\006>fP4\277\006I0?\003\367\237\277\037O\231\276\326\247\242>\355\203\313>\214\201;\277\235+\355\276\005\227\223\2761U^\276e\200\266>\301\010\026\277#*7\275\376\022_>\331\265\345>Fq\200?\306\016^?w-z>\\\252\214>\272\245S\277\214\216\310>/\2643?\235rv\277\236\242\322\2767Z8\2774 \022\277\214V\027\277.l\377\276\363\333\242?\376\222\005?`\243:\277!\212b?\007\033B\277.\325q\277J\273\341>cL,?\357\\\317\276\033\347z\277\021HI\276\267w\244\276\272\314\214\2774Ms?^\224D?<\272\233?r{\255?\262\2436\277\321\334\n\277\334\245\244>!\312\317\275(\314z>\235\266\265=\247\303\316= \356V=\261w\033?h#\033?\034\275b?\226\264\235?\233s\366\276F\2038>\372\227\014?\267\355\334\275\302\032\336=\325t\024\277\314B\217\276,V\010\276\362\356P?\237S#?\362D\335\276\377\2032\276\321#\241>\271Q\206=i\350\317\274\262H\345\274\260w$?\227\'\013?\031\226>\276|\r@>\2557\326>O\235\211\2740\357\t\276\206x\214<\311\364\321>\255\250\003=@\200\277\275\216)\305\274\332\372\263\274\317\255\003?\342c\"=\271>\002?]N\033>\3105O><&\314> \031@>Dp\372\276\310\026\014>.E\204\276WA\255\276\036\226\r\277\357\347\350>\344]^\277\263Qe>\341E\">\324\033\365\276\265\347\035=-<{=\201\233\241=\201\370\230=\306G&\277\353\311\276\277\354%4?\230s_>E\237\263>K\001\215\276\241\337\374>\376\r\330=\360d\027\273L\262P>\036uN\277Ch8\276Fr9>\200\333\027=prU\276\003\250\302>\024H\266\276\204*\246\275\354\2321?\377\366\227\274\323V\371=\357\271S>.\312\242=\314\031\234\275\302\252W\276T\025\224>\202p\243>\037\303\237\276\360\337%\276\310\331\341\2752x\202>\333U\341=\377\327\313\275<\t\321="
      }
    }
  }
}
node {
  name: "depthwise_conv2d_2/depthwise_kernel/read"
  op: "Identity"
  input: "depthwise_conv2d_2/depthwise_kernel"
  attr {
    key: "T"
    value {
      type: DT_FLOAT
    }
  }
  attr {
    key: "_class"
    value {
      list {
        s: "loc:@depthwise_conv2d_2/depthwise_kernel"
      }
    }
  }
}
node {
  name: "depthwise_conv2d_2/depthwise"
  op: "DepthwiseConv2dNative"
  input: "activation_2/Relu"
  input: "depthwise_conv2d_2/depthwise_kernel/read"
  attr {
    key: "T"
    value {
      type: DT_FLOAT
    }
  }
  attr {
    key: "data_format"
    value {
      s: "NHWC"
    }
  }
  attr {
    key: "dilations"
    value {
      list {
        i: 1
        i: 1
        i: 1
        i: 1
      }
    }
  }
  attr {
    key: "padding"
    value {
      s: "SAME"
    }
  }
  attr {
    key: "strides"
    value {
      list {
        i: 1
        i: 1
        i: 1
        i: 1
      }
    }
  }
}
node {
  name: "conv2d_3/kernel"
  op: "Const"
  attr {
    key: "dtype"
    value {
      type: DT_FLOAT
    }
  }
  attr {
    key: "value"
    value {
      tensor {
        dtype: DT_FLOAT
        tensor_shape {
          dim {
            size: 1
          }
          dim {
            size: 1
          }
          dim {
            size: 24
          }
          dim {
            size: 28
          }
        }
        tensor_content: "\\\233\'\276\237\" >&\257\247<.\312g\275\n}\246\276\334\370\227>\226$\343> 5o\276~/\272\275\356\177\222=I\372K>!\317\204\276\233\263\374\2746A\206<\204\"\251\276}\r\334\274u\364\003>N]T\275\331\322\235=$$Z\275\257\234\257\276\371\353-\275\024LH>\224^\221\274\263\263\352=8\002\245\274\246\235\037=\006\344\276=\273\361\374=\276\324\200>1\204\201>\274\373k\275X\347\242\275\245\201\225\276\014\244\367\275bA\027>%\264\217\273\304\331s>\272r\351=\314\204\266>\000c\027\275\257q\277\275\3564*?\324\211^>a\347->}f\210=\325/\217\276E\204_\276A\311\036\274\002I\342<\341\200\001=b\257\255>8\271_=zF\336=\r\261o\2757\027\325<\266]5\276\007F\200=\326.\374>\376\177{\275\354\030o\275i\006|\2757\002\036\275\214\226W\274F\215\024\276\322\345\216>\342r\203=\214\252\014?\224wO\275\324i\002>euL\276\350\273\026=@\321I\276P*x=o\307\311<2\334\245=\370\035\230\275\277\372\035=\322\301\005\276IbP\276\247g\007\275\223WK\274\245N\301;\231@\214<q\242\216>\010\312l\276R\303\245<uY\377>\262\253\344\274|\205\272<\244~<\275\215&E<c\2727>\036\232)>w\034\034?\002\267\266=\025V[\276\023\370Y=\206\222;?\373_]=B\376\252=\340\243\332<\300\ry>\255\204\247>\3068\352\275\250U\366=\035s\363=>\265\370=%\301\321=\323JZ<N\264\224<#\271\223=\033\367\\=\304/\242\275\265\373`\275\3448c\272M\375\332>\0224\"\275\377R\270=\325\331F=\347\235\353\275\033u2\276\225\326\353\275\345\223\227\274d\"/\273\367w.\276\276\246\300=\371\t\002\276\332\277\314=\200H=>w#1<P\210\010>\236@\225\276\240\303h\276!\255\252=m\367\227>Sxb\275\007:\000<\323@E>\372F\207=^\3252>\213e\204\276r\252\314\275\343\355\036=\216v\332\275\346e\223\276g\221\010\276\246L\262:\237W\014\275\027\365\003?\311\003\342\274D`\247?/\266\210<\364r|=~5D\276\245z\262=l9\014\276\373\215\226>\345\350\363>\367\014\020\276\010\340\364<\352O\370<\377\322c>%C\354\275\355\037\227\275\017;F\275\323\246j=\330\261\320=\371$\251>wPN\276nk\"\275\353\314\340;\234ai<\364fI\275\004\224\200>P\032\316\275\267\007\263\275\366\277\240>V\003\322\2758\211\207<\1779b>\250a\275\275\252k\207>+\226\004>(W,>~\327{=Q\241M\276\032\\8>\261\307\212>zg\333=}\210\335=\2227(?\312\005\323\274\n%\255;{\224]\275Q\302\231\275\335pA<\341\200\245=x\351\216\275+\336q\276R\213@\275\204\014X\273\2635\035\275\261\343\255\276\\\222T<z]+\277Z\363\220\275\300z\216\275\342I\223\276\201\244\310\276F\026\242>\"\312G\276\361\271\355\274\313q\\=\321\213\005\2772\262\354\275\2774\216=\275\327\304\275\2125\254\273\260z\371=,\013\266\275,\003\262\274\300\004\327\273\201\336M;aR\t\277\003\200G\276G\021\274\275\356\345\235\276\312s\327\274\221\377\251\276\002I+\276\322J\301\273\226\200\201\275\t \374\274/\230H\277\326\302v\276_`7=l\353>\275R@\205=d8L\275\005\t\261\276\323\201\235=\007\335\217\276\325KI\275\232\256\301\276F\366/\276\203\341\225\276\272\034\246=]\324\177\275;\215\006;cQf\275O\010\203\275I\013\266>\026#\334\275\242\223/=\355\205\226\274^\325\366=\036XZ\277\360\226\307=\300\272?\276\377\270w>\324U!\276\'S\263<\334\230\320<\036=*\275Q\325\370\274\274\302\230=\313\353E;\257\2753\270\262\225\325=\002\266\270\274\335F\005=\364\016\371\276\214\344\014\275\227\211\205\275\272\263\244<\231\365\236\274W\023\020<\237\232\213>\374\271A\275DH\025\276\263(H=_8#\275P,\217=\035\307}\275\243\221\367=\016;\307=\222\233\017\274\030\231:=\001e*\276d\006\255?\306\2036\275H\310\035\276\277\031e\274m\237\325>}\307j=l\341$=\277\003\263\275\373\232q=\226J\253\277\341\241q\276\201\217\344=\017\333R>Gu\342<\367\260\235=\3368\346<\305\203|<\016\237\374=\372S\223\275T[\242\275\002\334\022\275\232>\367>sm\024<\002\235)\276:\331\245>\262\010\010>M\276\031=yE\222\276H\301\314\275\2429`=$\305\225\275*\250\306\275\357\367\277>\320\002\003=\213I\250\274<\002E<\362\213\236=\026~\253=p\261\225=\234WU\276B\345\240\275\207g\263=\305\256\306\276\326$8\275\2700$<\2366|\275(\316\263<\221]2\276Yo\230=\251\001\034>\013\316\200\275\240@2>\3129e\275\374\343\201=\232J\032\276\027\305\313\275+\246\313>(\203\313=\212\211\243>\333Z\010>\271%$\277z\360\246=\300\330\017\274\252;\022\276\313x\252\276\003\001\t>\035KM>\032.\351\274\016\235\\\275\336\363\337>\006\277\024=L\322#=$\243X\275t\332\032\276\035\340\242\276\201\010\324\275\267\223S\275A\237S>Z\275(\275W\210e=\364\246p\275\3705\216=4@\345=\264\225\225\274\tk\376=\017\013\220\274KtY\275\375\\H\277\244 )\277\210a\273=\354\313\217\275\265D\237=\331\0132>\374P\256\276;\016\026>\201\322{<\350z\345=8#\305\273\206\320]\275~=\360\2749\213\337:\340\2475>s\365\260\276\324|\'\276\263\232X<\033\030\030\275XJe\2753\373~>\211\205\225<\275\270\036>\354 \317\275\033 \010=\352(\312?\205K\216\275\321z-\27402\215;\227\316\004>A\216A\275\030\250\312\274\211\212\205=\241i?=\340BH\276[\373B<L\312\272<\030\326\204\275!\376\000\2761\033\007\275\020c\000\276\213\024 \275\313\226\210<_\320\034\274F\024Y=)\2235=\251\246\017=\343\247\375;\342\322\207>\257!*>f\360 =\251\246\020<\312\263R\275<\030\301\275.\315)\277\211\367\244\275*n\245=\3563\024>\310\0135?\t[\271={\316,\276\031~\020=\266\351*\274\250P~<\234x\311\274\014v\353\275N\n\036=\233u\244\275\206\213u<\311\\H\274os@\275\335}\013>`\341\235>\303\326\000=\350\223==\367\315\337<\017\005\213\274I\243b=\212,\016=$O\003\275\2176(\277^\350\222=6\253]>\263\3057\275E\276\215\275%MJ\276\034\337~<\020\334\273>\230\265\345>>\361c?\312\003\253=\233R\235:\361\214\351;f#\022=sJX\274\3565 =on\367<\206^\007\275\023\355&\274\346\326\237=\365\201S\274\312(U=\233\243,\2767<\\<\250\020\215\274emE\274\2422$\276ycm>\251\251@>f\273\264>\351Ye>\204\342\203\275\017\204\372>)\315\025>\322\265\211\272\231\337\363\276\rq\370=\231\323\337=-l\364\276zs\327=&N\234>\366s\035<SQ9>\236\033\270=4\004\317=\240\361\237\274\332\214A>]\351W;\277Q\020\276\254\363B=\256\3250=\340\030\227\274\324\370 \276b]\230;\362\372\216\276\301\301D\275\310#\372>\375\322\214\274\332\253\272=\334i\230<\273\177\220=\224&$\276\274\310\250=\356\317\001>WFJ<\262\225\276>$O\222\274\320f\234=Z\216\212<\"aI\275\257D\020=\237\021\371<\307\321\236\276m\'J>\342\336\010\275\245\022\321=k\274\210\276?\370~\274\206\210\223>w\361\325\275e#c\274\201V?\276\2157\254\276V\024f\275X>2>k\277z\273\362N\016\2748\371\262\275R\013\256\276\311\235}=\317\321\211\274r\362\016\275\020\254\320;\326\201\355\274_\035\230=x\'C>2\321\275\276\033d\014\276\304\304\203\275\367\364l>l\353\027\275}\n\r>\304\222\t\275t\323\331\276\n\360\207:\234*\253=0,&>g\020\203<\242\252\370\275\305\263\033\275p\026\205\275\nU\347\275\022\307->\315\2725?\367\222 >\233P\214=$^m<\204\271\372>\215|\210=\005x_\275\256\242|=\211\037\261>\341\206L\277\261\262\227\276X\272\242=N\270\2439SR\220>N\245\371\273\333m\237\274\307\273\025=\304\035/\2764\242]>\177\351\346<\224n\232=\034\223$\277\216\345\355\273\271\305?\276V\340r\276n\266\026>\263\215-;\355@\313=\234\217,>Ja,\276\326\3670=\2550(\277\245\354t\274\233/\230\275\302\373\354\276V\336\202>[\255[\274\262$)>\030\"\344=\'-\226\275\377]\250<\2300\033;k\223\025=$Y\344\275,\355(=\227\301\223\272f4\224=o\375\374\274\034\002\\\274)]\214>\334\022\221<\250\250?\276D<\264=\366\233\276<\022\373\t=\362d\265=?\211\025<K\t\245\276Bb\237=\256Q\020\275\345\312\014\276\365W\233>\022J3\276Cn\317\274_\256!\275f\244\n>g|\271\274[\007\005\277YZ\231\276\336FK\274\2405h>\322~4\274\364\244\207<P\"\261\275\315g\246>\251\241\034\2757\230\213\276@_8=\030\370\362<\2349\014=_\357\234\273\254\275j=\n\253\204>H\351\222>\024\\\311=\010GE=9\232V\275\037\346B<\277\341\034>\311\215<\276\036\2035\276\272\265\013>\3652\257=\305\316\006\275\371\t\030\277)\342C\275U\027\236\276S\013\364\274\007\277\240=\005\227\000\275\273\307d<X\t\303\275"
      }
    }
  }
}
node {
  name: "conv2d_3/kernel/read"
  op: "Identity"
  input: "conv2d_3/kernel"
  attr {
    key: "T"
    value {
      type: DT_FLOAT
    }
  }
  attr {
    key: "_class"
    value {
      list {
        s: "loc:@conv2d_3/kernel"
      }
    }
  }
}
node {
  name: "conv2d_3/bias"
  op: "Const"
  attr {
    key: "dtype"
    value {
      type: DT_FLOAT
    }
  }
  attr {
    key: "value"
    value {
      tensor {
        dtype: DT_FLOAT
        tensor_shape {
          dim {
            size: 28
          }
        }
        tensor_content: "=TC>\262\210\005>&\250\353=\342\2775?l[3\276{<,\275\364\003*>{\334\017>\366L\232\276\307\316\023\275\273\360\207\277O1(\277\354\271\026\2769(\211?\270@(\277u\3640>jgB>\247\220\005\277\360\300 =1\r~?\205\355,>\341\334\272\275xg\344\276\304\362?\274\274\364\323\275\305\373\336=y\241u<\206\207\320\275"
      }
    }
  }
}
node {
  name: "conv2d_3/bias/read"
  op: "Identity"
  input: "conv2d_3/bias"
  attr {
    key: "T"
    value {
      type: DT_FLOAT
    }
  }
  attr {
    key: "_class"
    value {
      list {
        s: "loc:@conv2d_3/bias"
      }
    }
  }
}
node {
  name: "conv2d_3/convolution"
  op: "Conv2D"
  input: "depthwise_conv2d_2/depthwise"
  input: "conv2d_3/kernel/read"
  attr {
    key: "T"
    value {
      type: DT_FLOAT
    }
  }
  attr {
    key: "data_format"
    value {
      s: "NHWC"
    }
  }
  attr {
    key: "dilations"
    value {
      list {
        i: 1
        i: 1
        i: 1
        i: 1
      }
    }
  }
  attr {
    key: "explicit_paddings"
    value {
      list {
      }
    }
  }
  attr {
    key: "padding"
    value {
      s: "VALID"
    }
  }
  attr {
    key: "strides"
    value {
      list {
        i: 1
        i: 1
        i: 1
        i: 1
      }
    }
  }
  attr {
    key: "use_cudnn_on_gpu"
    value {
      b: true
    }
  }
}
node {
  name: "conv2d_3/BiasAdd"
  op: "BiasAdd"
  input: "conv2d_3/convolution"
  input: "conv2d_3/bias/read"
  attr {
    key: "T"
    value {
      type: DT_FLOAT
    }
  }
  attr {
    key: "data_format"
    value {
      s: "NHWC"
    }
  }
}
node {
  name: "lambda_1/Const"
  op: "Const"
  attr {
    key: "dtype"
    value {
      type: DT_INT32
    }
  }
  attr {
    key: "value"
    value {
      tensor {
        dtype: DT_INT32
        tensor_shape {
          dim {
            size: 4
          }
          dim {
            size: 2
          }
        }
        tensor_content: "\000\000\000\000\000\000\000\000\000\000\000\000\000\000\000\000\000\000\000\000\000\000\000\000\000\000\000\000\004\000\000\000"
      }
    }
  }
}
node {
  name: "lambda_1/Pad"
  op: "Pad"
  input: "activation_2/Relu"
  input: "lambda_1/Const"
  attr {
    key: "T"
    value {
      type: DT_FLOAT
    }
  }
  attr {
    key: "Tpaddings"
    value {
      type: DT_INT32
    }
  }
}
node {
  name: "add_2/add"
  op: "AddV2"
  input: "lambda_1/Pad"
  input: "conv2d_3/BiasAdd"
  attr {
    key: "T"
    value {
      type: DT_FLOAT
    }
  }
}
node {
  name: "activation_3/Relu"
  op: "Relu"
  input: "add_2/add"
  attr {
    key: "T"
    value {
      type: DT_FLOAT
    }
  }
}
node {
  name: "max_pooling2d_1/MaxPool"
  op: "MaxPool"
  input: "activation_3/Relu"
  attr {
    key: "T"
    value {
      type: DT_FLOAT
    }
  }
  attr {
    key: "data_format"
    value {
      s: "NHWC"
    }
  }
  attr {
    key: "ksize"
    value {
      list {
        i: 1
        i: 2
        i: 2
        i: 1
      }
    }
  }
  attr {
    key: "padding"
    value {
      s: "VALID"
    }
  }
  attr {
    key: "strides"
    value {
      list {
        i: 1
        i: 2
        i: 2
        i: 1
      }
    }
  }
}
node {
  name: "depthwise_conv2d_3/depthwise_kernel"
  op: "Const"
  attr {
    key: "dtype"
    value {
      type: DT_FLOAT
    }
  }
  attr {
    key: "value"
    value {
      tensor {
        dtype: DT_FLOAT
        tensor_shape {
          dim {
            size: 3
          }
          dim {
            size: 3
          }
          dim {
            size: 28
          }
          dim {
            size: 1
          }
        }
        tensor_content: "\240\005\212\276\361\343R>\3552\354\276\214\204\020\277\371\361\241\2765\223\214>\355rN>\300\177\216>\222\273\227\276\201\024Q\276\376\245\001\275\322.\216\276O\320s\276\314\366\036\277\200p\267>\341}\001?\225\233\007?z\036\253\276X\277\304>a5\017\276\277\352\274>\215\212\263>\217v\216>\316\257#?\037\022\376\276}C.\277\261\377\306>Y\334\007\277.)\244\276\017\013\345>\222\331b\277t\224+\277<}c\277g\376\306>\320.\026?z\272\026?\305X8\277\207\314]\276\367\031\272<\032\217\313\276OE7\277u\245\"\277\3559\320>@1M?\002\2272?\224Y\371\275\266\376\241>`p\t\277E2\310>[\371\360>\335\376\314>\314\302\016?\337`U\277\320\324\262\277D%h?\2171\246\276*\332?\275;\235\220>\334 \014\277<z7\276\007i\371\276Tf\221>\354\315\342>\261\001\003?+\032\t\277\360\307\204\274\377\331}\276k\365N\276\0338\377\276\031\223\234\275G\222\237=\233\324\361>J=\244=\200kf>\256\356|\275\240$L\276\263\241p>\342\312\033>\323^@>\241/\017>M\330\372\276\334-\204\277\006\334I?\360>\254\276V\325\357\276\325xc>,/p\277\020x\324\276\261|T\277H\"\023?\211\306\020?\311\036\315>7l#\277ic\335\276\250\021\243<\345\324\357\276H\326\355\276\372|\021\277\203\023\353>\306,C?A<\215>\312\037\203\276\375\250\274>~\345\221\276u,\034?\336\224\037?\264\373\300>F\014\017?\265\343?\277D`@\277\324\3404?\035\271\200\277\002\034\023\277\305\223\335>\230\272\307\277\224_\022\2770I\215\277\005\267P?\360\265\204?05_?\2039\203\277\333\313\007\277i\214\205=Fv7\277}\337i\277M\252 \277\313\014\025?*\236\247?\002\330\336=\010\200\265>~\r\222>4\301\021\277\343\204V?\337\332i?\211\331??\234\267\355>\367\336\266\277\214\363\264\277\273\r\274?\335\277\t\277\373\217\370\275\\\310\232>\262\016;\277\030\2418\276\340$\037\277\351\302\353>\217e\016?\2663\365>\371LN\277\203\306.\276\\\000\244\2760\343\267\276\253\326\020\277\224\241\334\275+\356B>m\303P?\003?\216\276\370\034=?*\026\256\275\t\201A\276 \310\323>MT\322>\332\013\026?B\346\221=\001;j\277\314\026\204\277\302\215g?\240`\360=\372\t\253\276\031DN=j\331\010\277N\224M=\023k\251\276M`\254>\226\200\330>u\227V>\310\310_\276_4l\276v\256R\276\241\271g\276\306\204G\276\017\374\023\276\246?j=\245\345\267>\373_S\276\247Lx=\372\252q9\n\366\222\275E\001\252>~Y\253>\003\023\267>\224\215\231=b\246\334\276\310\260\t\276\304\227\013?\304K\006\277v\202\257\276\024\037\230=D\0311\277\030c\375<\331$\022\277s\t\342>-6\022?b-\343>\365\352\361\276\250\351\250\276\356\207\234\276T\251\263\276{u\350\276t\264\302\275Q\"\201>*\2773?\203\016\312\276,j\005?\341p\025\275\030\200\202\275\265i\014?\303\211\013?1\366&?\377\234\315=8D=\277\202\371\267\276\304\207.?r\032\321\276\033\344\340\275~\325\214=\225\322\216\276\374{Y\274\375\026\205\276\004\2027>e\034m>,\025.><\346\223\276\'\026\021\2762_\013\276\215\2343\276\342\366q\276\272\261\210\272R\023K>*V\347>\310\033\322\276-E\r?\204\0141\275\001@\222\275\371H\202>$d\224>\300\262#?\231\235\027\276\2474\265\276\365\203z\276\346\347\177>\224M\265>"
      }
    }
  }
}
node {
  name: "depthwise_conv2d_3/depthwise_kernel/read"
  op: "Identity"
  input: "depthwise_conv2d_3/depthwise_kernel"
  attr {
    key: "T"
    value {
      type: DT_FLOAT
    }
  }
  attr {
    key: "_class"
    value {
      list {
        s: "loc:@depthwise_conv2d_3/depthwise_kernel"
      }
    }
  }
}
node {
  name: "depthwise_conv2d_3/depthwise"
  op: "DepthwiseConv2dNative"
  input: "activation_3/Relu"
  input: "depthwise_conv2d_3/depthwise_kernel/read"
  attr {
    key: "T"
    value {
      type: DT_FLOAT
    }
  }
  attr {
    key: "data_format"
    value {
      s: "NHWC"
    }
  }
  attr {
    key: "dilations"
    value {
      list {
        i: 1
        i: 1
        i: 1
        i: 1
      }
    }
  }
  attr {
    key: "padding"
    value {
      s: "SAME"
    }
  }
  attr {
    key: "strides"
    value {
      list {
        i: 1
        i: 2
        i: 2
        i: 1
      }
    }
  }
}
node {
  name: "conv2d_4/kernel"
  op: "Const"
  attr {
    key: "dtype"
    value {
      type: DT_FLOAT
    }
  }
  attr {
    key: "value"
    value {
      tensor {
        dtype: DT_FLOAT
        tensor_shape {
          dim {
            size: 1
          }
          dim {
            size: 1
          }
          dim {
            size: 28
          }
          dim {
            size: 32
          }
        }
        tensor_content: "\223\333\362=\235C\210\276\266\264\207>F\363\030>\025\353\\<\212\322\376<\312d*>d\216\234>\376\261\305\274f\211Z\275\007\020,=\256\307\204=\364-\374\275X\301\273\275\256Z*\277\2463\016>0;i\276\311PA>\302\375\252\275B\245G\276\3069\261>o\025\000\276s`\020>M\014u=\262\211`\276-\036\026>\300\274b\276\253S\373=_\207\205\275\032?\006\271\353)+=\3346\312\274v\005:>\304\007i\276z\222\022\2769\023L\276v\262\000\275\301\353\205\276\235\277\'>\342\014\320\275\267a\331\273F\004z\274\3454]\276\342\337\333\276Km\017>\264$Q\276\362\304\211>U\342\327<:\367Y=\222\337\202:\007:R\275TJ5>\364\332:\276\354&\200\275Wu\342\275\202\024\273\276DS3>k\030\235<\006n\225=\016X\262=\005\014\335=\317\035\355<\033\324\250=F\013\037\275H\350B<6\204\216>\256\367,\276\227M\347<\320{S\276V\222\327\276\010\3228>+D\320\275\332\024\321\276\207\346\017\276}\342\232\274\254\375#\277\334>\201\275\205\235\232>\335\224\256=\301\235\200\275b\242\356\276\225\n<<\220\263\t\277v\371O\276\310\345+9\216\006\033>\312\300\234>\377\212\002\276Q\315K\2763fE>\235j\222\275\r+G\275D\230\201\275hw\200>\310\261$>\217\247#\276\233P\334<\334\306}\275\367\244|=\025\3752?\021r\001\276\025\200\252\276%\023=>A+\237\275\225`\007>\225\370i\276\270\246\027=\037S\004\276\2472O=\275\353W\275<\'\013\277\233\321g=\302B1=?\013\233>\361\325\371=Kg\302\274(U\210>\030S\365=`\213\r\275o\222\263\275\tk\260\273~\002\004>\003\275\010>\220\362u\274\227\005\353=\317QO;\302\016\311\275(\275\035>\001j\223\274\227\247\005>\262\034\213\276\214\255\t\276l*\177\276o\r9\276\211\276\324<\243\317\226\275p\250\372=[\332\037\276\220\336/=\036\004\224\276\232%\205\275\022n\275>\351k{\276BT5\276\222\025\220>\321I\202=*\335\236>\257c\317\275\350\225\311=\337\322\312\275\225V\214\276sj\211=\235C\025=[\340\021?\373\370\021?\201\210\303=\366{\243=/\217\216\274\312%\036>\035\022\253>\'eD\276H\233n<\236\271\272>\3710\036\276[(\214>\332k\254<\345\023\r\276\370\0249>\376\241[>\221\211\210=\342,\273<^G\216=\223wf>\332\272\027\276\023eq=\340\177\004>\2144\247>e\006\030=\260o\216=N\332\027=\362L=\275\206z\312\275\253o\274\276\325\261\n<L\244o>\303\2124\276Jk\023\276D\"\342\275\027j\304\275\001\2577\2769\216L\276\354\242\227:\305\223e<\t\035\177\2762-{\276w\351\230=\275#Q\275./\023>\360\206&:\304~\362\274ez\004\276\345\346\231<]+(\275\227\017\210\276\277\325#\273\276\220c\275\263W\330\274f0\037\275\255v%\277V\227=\275\023\246\275\276\001\206\020>k\314\253\275rQ\212>\220\264.>\002(\240\276!q\237<D\370-\275\235Y\263\276\"-\035\276A\005\254\275\217__=\237>\242\274\310h\202\276R\266]\276\244\"\247\274\023\220\034\276\002\361\031<s/\361\276Y\003\030\275\272K\247>(P&>.\363\006\276\223Q\277\274\211\370\327=5N\035\276\215\000\375<\205\260\317=`\344\372<\240\022\242\271\244v\236\2753\372\305\276oHU\276\241\253\014\276r\310\321=\023\323\312=#\305 \276d\243\211\276,O!>\342\302\322>\034\020\332>\347\224\262\274\204\n\277\275\355\r<=F\0248\275\237\360\207\276\223+\026?\017\274\221=\367I\230=\327\254\343=G\323$<\036\230\201<]\356\205\275P:\177=\240\337\223=\321\243\331=\035\265L>%\371\023>+\310\375\275\005\204\376==ad\275\215r\254\2740\357\247\276K\222O\276Pf\341\275T!\366><\235\367\273\004\n(=`\245\003?h\370@>\204_\212>Y\251 >\335\201$>\346\217\241=iQ\214=\202H\256=5\246:>\213\276G>\277\2260=\r?\n\274\354\250\022?\376V\360<2\260\000;h\2378\275\2722\316;\005\232\267=\276)K\2766\224\276=N\266\256=\337\233\275\274u\262\373=\246\304\200\275\366\227/\276\214\365\203\276\220\260=\276\314za>\211\262?\275\214E7>\266\275\222>\315\213A\275\355\334\301>X\013\235\275\217=\006>Y\317\241\275>\261u\276\231Tq<4K\352\274-\033\304\275~\343b>\344F!\276w\343_=\255J\246\2730zC>\235\257-\276.\305\034\276Yu|=\2266D=\021u\233=\201\373\223\274/\304\024>\302\026M?\341\206\002=\322\312\335\274\235E\215\274\303\3435\276\321\014\026>\336\350\256\275\270z2\275\372:\020\276\321\263\237=\207n\343\274\325@$\275\347Q\302<\313\331\355\275\002\340\203>^\221\r\275\007(\356\275\207\314\377\275\007\333\243=h\372\304\272\364\'=:D\231#=\333\366\243\274\371\323\265>\306\203\005=\222@\327:;Z\373\276z\344\225\275!\271\005>zS\313\275\322]V=\020\350C\276\262\306\324\274(\020\343>a#7\275\221\016\035>\371\356b>\330+{\276\235\353C=\026S\222=\252n0>\307!\306\275\347;R>]oH<A.\351\275I,\335\274\004^\"\275\024\241>?\274T\260>\304\306\324<\347P\t\275\005\377\226\274@Z\337=\024r\021\276f\022\024\275\340V\177\276.\240\365>R62\276\270\276,>\336C\031>\354\322e=P\234\023\273\212\227\321=\0005\314=\202\332\315\276C\216\327=\337\345\343=1\210\022\275\300\356v\276\236b\220\274\306}\231>\3429X\276h\367\217=*Z_\276JDV>\320W\345\275\335\300\344\273\370W\207>h\260[?\255\317\003>\344bT\276ND\233=\352\320\225=\2763\035>\360\334\227=\205\302+\274\271\010}=\025\177\230\275\212qm>\340\t\217>\007\010\016=Z\347\271=\3700\230>%N\256=\342\261)>\305\307\266<\200H\002=\307\002Y\276\273\317\033=I\241\311>\246,\224\276\362(h>\225\345\326\275\350s\240\276`\326\031>\"\301L<EO|=\333\346\231>T\'b>w\321r>o\\\203\275V\213\347=\235\230G\275$\325\020>\276\222K;M\214\314\274\342+V=@\267R\275\252[\003\276\031Q\034>\320\201f\276\002\304\027\275\375\263\\\274\360\352\265\276 \232\252<\301K\214\276\217\305D<\327\351I\275sk\272\276V\366\017\277\031\303\326=DI.\276k\315\267\276\207e\211=(\t3=\33363\276\361\276X=\212\203_>^\234\204\274\317>\337:\251\216\207\275\235\333\301\275\243\360\223\276\205\270s\275\025s\347\275\363t\033\276(\340l=z\250\035\275\330\354\304\275\031\010\266\274\301?\214>:\235\371\275\303Wi\275\026\257\330=*\230\343>\2525\014>\022\333\255\276\t\325\003\276\000-\241\2760\265\362=\223hx=\223\310\003\277\034+V>AP\254=_\343\251=\316\257 >\206\271\004\276\244x&>\255D\236\273\'pb\276D\002\204\276(\323\370=<\234\357>\367\037\003>q\266\342=`wX\277wr\233\276$\230\020;\030\255\203\275\246\217\323\274\332\034M\275\272cN\276\222\t\242=\251\003\025\276\344A\236>\344\221_\275U\354\204>g|(\275\310\214\312\275\017\316{>\006\335\361\275J\253\321>\231XK<6\273\021\277\253\350\267=#\316*<\303\364\212\2753\301\206\275]\241C\276,\231\313\276l\010]=\365R\226\276M\003L\275\330\244\200\276\2575I>M\314\241\274*\236#>:.\017>\205\242\224=\243!\325=\027z\277=6\2121\274\241(\234;2f1\273&\245\000>:\017\023>#PV;zG\370=\221p \276N#\212>>\'\252\276\300<w<ZK\242\275\\V\032\276\321m\336\275\236\324\371\275\255\347\357;&\313\346\275\344\354\027=\021fT\276\001\356\225>\202\315\315>\0066\264>\374\033\246\276Ce\312\276UG\021>\311\243\352=\232/}<+^8\274\330\003>\276l\000\300\276\2202\261\274\340,<\274*\032\004\276\236c\366<\177\204\201\275\300\312\215=\312\374X=\013\237\213=\265O\215=\177i\305\275\254d(\275\214\005\343\275r<\013\276\245&T=\250\346\275\275\200vM\274\250\261R>\376D\254=\305\231\213=\365\337\r>\271\254-=W\245\002>\372%\"\275\337\261\001\277\376]|\276\237E\364\275\300\252&<\363\255\014\275\357\340\357;j\0069<\365\266\316= \3549>F\334\177=\311S\270\275\252|\355\275>\354\252\274\302LL\276\202\347\233=\t\243\204<Z]R=\004\362\317\274\336\361\365<\t\037\010>p8\201>#B)=\222\371q>=i\204>|\244\210\276y\330\357\275\202\326x\275\321\316\034\276(2\230\276z7\216\275e\322\r>^-\273\275\026\037\003\275Z\000@>\035\256\220=?G`\275;[\215\275\354\274B\275\0176R?\017j\275=\205\247\\=\305G\233:\343{I>I\2110=\025D\030=zY\363=\240\344\206=\252@\017=\227\326\323>\363\243\315=\264\226\356\276\215y\213\276\367\016\313>\335\226p>Z\333\025=\340\245\276\276\235o\\\276\225\250\213\273\252\212\361<\335\356\346=sl\342>C]7\2767) \275f\374\216\275!\242\205<\'\226\300=\377\257\224=\t\202\027>\272\'?=\363\273\021<\240+\251\276\r%\345>G\026\255\274\263Q\352\274\2770\305\275u\\\004=\013\022:>\301fk\274\251\370\222>\034\0075>\034\2535\275^\305\315>R\353\336\276\265\311q\275\214\244\"\275S;\201>)\241v\275x\265B=\324g\374<\001\323|\276E\310\316\275\007\353S>+p\200\274\335\331e>$\0102\277lo\257\275d\342\212\273o\207\261\272\227s_\274\226T\211\275\315\226\247>Fi\003<r\212\213=@\243N>\363\336i=I8D=\235+h\274\216y\213=\3320\322=\371\203u\276\036\220\236\275\013\351@>\373\255@>x\331\201=oM\262\274\262\263\306=*\212g\276+\215B\276Q\000\211\276\022\301K\276\234\026\242\275\003|\272\275\240\005\273=$r\203\274\031#>\275\220}\213<\240\376\227\276\205M\232\275\232s!<\205N\230>)\245\316=\016\361|\275sc\226=9R\347\275]oA>\036VH\276!o}>\312{\206\276\227\263\272=\342\023\216\275\343\020\371=1\204\304>\377&\212>\253\027\336\275\013&\253\2761\335\241>\332\233\027\275\224\020\246\275\206\374!<\342\271\027=\202\361\027\276\313\260\014\276\210\260\213>S\236\215\274\270\212\355=n\013x=*.\007?p\361\302;k\316\031>\275\000\354>\376e\320=\260\233:>\257\221\221:\340SS>\313\340\242=?h$\276\223\304^\276x=\021>a\336\224=W\245\232=HW\214\274tbh\275G5\215\275\220L\366\275\346\3436>\314\327%>\203\025<=\245\377\272\276\023\374\210>\325\361\226\276\371*t\276%^:\273\260\222*>\356;\372=5\261\204<\251t\031\276\250t\201=\304\257\327\274\006\265\020>7X\256=\017p\267?\203\351\375=\256?\364>\304[&\276\337d\\\276\372[\202\276o\361\211\276Qi\205>Z\330\007\275\221\020\354=\2516y>\'\317\225=4\212L\275k\305t\275\007\035\236\275\323\231$>\0306\372\275qV\326=\270?\204=\343\nm<\214\275\341>\0233,\2776AE\277\322\365V\275!E\351\276\271\224\275\274\203\273\276=?\026\200\276\201\266\356=!\346\210\275\274\\\307=\224\245\025\276\335W\027\276&\302\266\276\215\232\315\276Q\305\267=rds\276\311|\257\274\265\264\303>\204 \037\276l\202\">\001\373\211>\033\270\371\276\246\020\352\2758E\232\275\353\317v>~(I\275Q\334\007\275\261a\021>\243\"i=\273\332\306;\362\354\213=\311\3542\277{\316\003\276\210\334R>\241\004L>1\200Z>\242\234\257>\"P4=?\305\000?Ni\201\275\007\241\351=\341<r>$-\326;kpW>\006\351\243\275\000\260\233>s\204\251\275\264\354\010>\334\253\262>w\336\353\276]\\3\276*\016E>\346\203\r?\021\332\316>\017\325\001>\345(\203>\276\327a\275A\317W=\0240\010\276N\372\\\275\374\303\314\275\213t+\275\200\230\307\275,\026\345\276F;:>\201\313\236\276\001_=>\204\332&=\224\317\276\275Pqj>\233\354\342=e\360\214\276\202\223R\275?(\263>\331\206\236\275\0358d\275\257r\251=\221K\311\275< \371>\272Zs=\237\260L>\247\273\r\276\230x\270:\300\214\372>\222\034\252\276Z\257\036=\017XJ\275+\rl>\330^\200\2756\027\033=%:\333="
      }
    }
  }
}
node {
  name: "conv2d_4/kernel/read"
  op: "Identity"
  input: "conv2d_4/kernel"
  attr {
    key: "T"
    value {
      type: DT_FLOAT
    }
  }
  attr {
    key: "_class"
    value {
      list {
        s: "loc:@conv2d_4/kernel"
      }
    }
  }
}
node {
  name: "conv2d_4/bias"
  op: "Const"
  attr {
    key: "dtype"
    value {
      type: DT_FLOAT
    }
  }
  attr {
    key: "value"
    value {
      tensor {
        dtype: DT_FLOAT
        tensor_shape {
          dim {
            size: 32
          }
        }
        tensor_content: "#$\224\274\350t\265\275\ru\240?\237=\303?,\356a?\274\327G\276E\200\350?\204cX>H\203\254?\222~\270<G_\205>\r\010\017>X\361\376\274\302s\237?y\255h\300\351\261k>\020\3103\276h.\037\277r\037\205?\315\273(\276/\355\371?\200\235\203?\312m\303?\301\374\322?3L\236<o\346\326?\260\377\007=\325\353\"?\203\212\303>B\227\024?!\367R?J7.?"
      }
    }
  }
}
node {
  name: "conv2d_4/bias/read"
  op: "Identity"
  input: "conv2d_4/bias"
  attr {
    key: "T"
    value {
      type: DT_FLOAT
    }
  }
  attr {
    key: "_class"
    value {
      list {
        s: "loc:@conv2d_4/bias"
      }
    }
  }
}
node {
  name: "conv2d_4/convolution"
  op: "Conv2D"
  input: "depthwise_conv2d_3/depthwise"
  input: "conv2d_4/kernel/read"
  attr {
    key: "T"
    value {
      type: DT_FLOAT
    }
  }
  attr {
    key: "data_format"
    value {
      s: "NHWC"
    }
  }
  attr {
    key: "dilations"
    value {
      list {
        i: 1
        i: 1
        i: 1
        i: 1
      }
    }
  }
  attr {
    key: "explicit_paddings"
    value {
      list {
      }
    }
  }
  attr {
    key: "padding"
    value {
      s: "VALID"
    }
  }
  attr {
    key: "strides"
    value {
      list {
        i: 1
        i: 1
        i: 1
        i: 1
      }
    }
  }
  attr {
    key: "use_cudnn_on_gpu"
    value {
      b: true
    }
  }
}
node {
  name: "conv2d_4/BiasAdd"
  op: "BiasAdd"
  input: "conv2d_4/convolution"
  input: "conv2d_4/bias/read"
  attr {
    key: "T"
    value {
      type: DT_FLOAT
    }
  }
  attr {
    key: "data_format"
    value {
      s: "NHWC"
    }
  }
}
node {
  name: "lambda_2/Const"
  op: "Const"
  attr {
    key: "dtype"
    value {
      type: DT_INT32
    }
  }
  attr {
    key: "value"
    value {
      tensor {
        dtype: DT_INT32
        tensor_shape {
          dim {
            size: 4
          }
          dim {
            size: 2
          }
        }
        tensor_content: "\000\000\000\000\000\000\000\000\000\000\000\000\000\000\000\000\000\000\000\000\000\000\000\000\000\000\000\000\004\000\000\000"
      }
    }
  }
}
node {
  name: "lambda_2/Pad"
  op: "Pad"
  input: "max_pooling2d_1/MaxPool"
  input: "lambda_2/Const"
  attr {
    key: "T"
    value {
      type: DT_FLOAT
    }
  }
  attr {
    key: "Tpaddings"
    value {
      type: DT_INT32
    }
  }
}
node {
  name: "add_3/add"
  op: "AddV2"
  input: "lambda_2/Pad"
  input: "conv2d_4/BiasAdd"
  attr {
    key: "T"
    value {
      type: DT_FLOAT
    }
  }
}
node {
  name: "activation_4/Relu"
  op: "Relu"
  input: "add_3/add"
  attr {
    key: "T"
    value {
      type: DT_FLOAT
    }
  }
}
node {
  name: "depthwise_conv2d_4/depthwise_kernel"
  op: "Const"
  attr {
    key: "dtype"
    value {
      type: DT_FLOAT
    }
  }
  attr {
    key: "value"
    value {
      tensor {
        dtype: DT_FLOAT
        tensor_shape {
          dim {
            size: 3
          }
          dim {
            size: 3
          }
          dim {
            size: 32
          }
          dim {
            size: 1
          }
        }
        tensor_content: "\317\035\232=\346;\347\275\377\370$\276\010x\363\276k%:\2776\331\014\274\020\005\000=\325y\371\275\203\034\315<(}A\274\213\352c=l#?\2753j\007?\'\250\206>\027\304\245>\346%g>OTs\276J\372\356\275\272\361/>To\333=\2110\213>\211\315\356=\342/\322=.g1\276T\272K?\242\303\340=\230\177\220?N\0173\277\034\365\266\276\375\373\231>\354I\\?\272\000\263?\313!\t?\257m\235\276\023\372\271\276\203\226\021\277g_\276=\005\352\254<\345\330\262>\345\021\276\276\242c~\277\001\363\201>\211,\271>C]y>/Y\025\277\010\337\236>x\373\020>nK\017?\327T1\275_;(>3WE>\323\005\240\276+\265C?\034\330\023\277\026\350\213\277\223\005\207\276A\211\234>\361\022\300\275\273]\037?\212\205\271\277\033\007>\277\232\334B\277\331\315\272>\350\r\264?J~\261>lg\242;A\004\374\275\310\017\310\276L2;?\325\203\377=k\315\255=M\245\351\275\351\246_=\020\357\237>\t\3419>K\314\247=\037/\013\276*\342\256=\"\3015\276\342.\236>>[Q\276\221\204u=\t\020e\275N\277\300=$i\274>\262*\305<-#\357\276{l\343\275\206\202o\276\340u\323\276\357\225\203=\363`B=L$\255\276\n\231\025\276\214\t\177\276\315\322\270\275)\036+\276\030\254\276\276\026k\\\276+\314\361>\362\351\"=1\032\n\276\217\203\020?\353)\003\276\001pJ\276\370s(\276~5\232>\3352\004\276\211p\215?M\247\244>\371\272A>.\324\024>\271,\177>Oz\276>B\r\007\275\337\006A\274$\373\261=L\324\035?\016\n\372>\247\263\354\276{G8?\336\026\214>676>\035\026#\277k%\206\276\\j{\277\216\331_?M\330\235>~l\251\277m6q\277\222\305\307\276\226\226\327?\'\306\352>\212Z\264\277*\017W?\024\371w\277Gu\245?!`B?\363\242\207?\375\343\205?\017\211\357\276&\261f?j\014z?\230\214\253>7\353\217\277\370E\275?\203\343\310?\341\256\275\277#\373\232\275\243\326E\277\312\010K\277\356\206\325\276+\250\224>e\301\276?\2643\216\275\377Tk>L\334\315\277\321-\263\277]\033i\277\252cp\275\004\207\363\273\325ZV\276\2322U\276\302\3376\276\374\004/?\027\330\243<\007\335B>\\\300o\276\240\363M=\007\nx>\244j\006?up\306\275&\244\274\276?)k>\177\247\266>\265]~>]&L\277i\n&?\215\274\323\274\310NS<\264\002\256\276\244\360\312\276m\227\227\276\330\n\376\2767\255q\276jA\341\273\375K\210\276 \260\026?Wx\206\277v\333\007?\217\220\246>X\006\r\277\2552f>\345Q\207\276cb\256\2764\177\230<\355\305\006>\036\335Y>\204;\274>(\333\310<v\001\005\277\377\275\021<\327\017\001>j=\024<x\354[>\360\347\301>E]a\275Q\256\315>\2436\014>\226\314\345\275\327\370\000\2760o\014\276\3551\302\276A\372\366=@\317s\276\352\021i\276\217:\370\2758\375B\276\367\267)\2760S_?G\323\300\275\010\331\352\276\202\237\r\277v\341\210\276\353\324U\276\r\347\327\276%S\232\276^\214\223>vy\026\277$\034-=7\037\331=\214\246p>\0236\244>i\303\010>\255(\250>\210&i=\275\375#?\276\251\033?(>b<W6\255<S\373&>\256\261f>!\301\036=zgj\275\303\267\"\277\204\016\253>\276\347\227>nT\225\276\013\273P\276\270\275\272>$\375\236\275v\266\224?T\251\\\276\271`\200\277\375\331\201\2773\366~<\325\256\300\275\216\202\365\275\377W\360\275y\355j<z\240\370=<\204\342=\035\336\000\276Sp\234=\303\247Q>pV\371\2758\003w>\032\336v\275D\203e>\375\327\301=\340\234\245\273\274\007$>\365\2144\276\t\320\216=g\323\313\275\222\256\247=K\273\235\276\337\020h>\264\265\010>\\\345N\276\016\205V\276AW\264\275\233\201\223\275\201_{>\363r\017\277=7A?t&@\276\0224\264\276"
      }
    }
  }
}
node {
  name: "depthwise_conv2d_4/depthwise_kernel/read"
  op: "Identity"
  input: "depthwise_conv2d_4/depthwise_kernel"
  attr {
    key: "T"
    value {
      type: DT_FLOAT
    }
  }
  attr {
    key: "_class"
    value {
      list {
        s: "loc:@depthwise_conv2d_4/depthwise_kernel"
      }
    }
  }
}
node {
  name: "depthwise_conv2d_4/depthwise"
  op: "DepthwiseConv2dNative"
  input: "activation_4/Relu"
  input: "depthwise_conv2d_4/depthwise_kernel/read"
  attr {
    key: "T"
    value {
      type: DT_FLOAT
    }
  }
  attr {
    key: "data_format"
    value {
      s: "NHWC"
    }
  }
  attr {
    key: "dilations"
    value {
      list {
        i: 1
        i: 1
        i: 1
        i: 1
      }
    }
  }
  attr {
    key: "padding"
    value {
      s: "SAME"
    }
  }
  attr {
    key: "strides"
    value {
      list {
        i: 1
        i: 1
        i: 1
        i: 1
      }
    }
  }
}
node {
  name: "conv2d_5/kernel"
  op: "Const"
  attr {
    key: "dtype"
    value {
      type: DT_FLOAT
    }
  }
  attr {
    key: "value"
    value {
      tensor {
        dtype: DT_FLOAT
        tensor_shape {
          dim {
            size: 1
          }
          dim {
            size: 1
          }
          dim {
            size: 32
          }
          dim {
            size: 36
          }
        }
        tensor_content: "\010#\326>]\023f=\314\372\"\275\353(\231<\200\224\235\275D\230(>\251\241/\275\211\312\036=\362L\325=\256t\342\276n\240\231<m\367l\276\236\n\206\273\332\374n\274\355\246 >\247*0>\300\342\177\274!\317\257;\302\314,<\344\364 \276#sO\275\357\325\002\276,\227\322=S\"\035>V\034\204\275N\306\235\275\020\271n<\333\3679\275 \277\362<=\234\236\275+VP=\025\257\317=\347Z\036\274sK%\275`\010\030<\322N\350<\002Z\030\275]\032{>\312\205:\275Zf\024\275\272\305~=]\202Z=\273\264\034\276\232\373[>\023\343\031<\361t->\024P\227=s\257\355\275\256D\364\274\255\376n\276`\322\315\276[\353r<\360\346\034>\313\304\302\274\230\007w<\010\275\267<\371\026\r=\263tz>\315\250\313=\033\225O\275\202\205$=\256\020\302\274Ox\214>Z\306\021>\356\360\340;\242N\007>R\325n=\246\037\255\273\r\255\212;pM\330<\006\326>=\032\210\243\275\366\254\246=?M\265=\322\352+=\200\277\323<\360\374\205\275B/\351\274\344y\230>g\353c\2763e\256=jQO<{\324\036>\257W\222\275H\370\023=\0175\274=\275\251h>\226V]\275!\240t\275-\330\037=?\235\312\2752\346\025\276\031\3224\275\020\300\036\275*\210E>dpZ\276\305\224\311:\232n\366\275\361+\312\274)`&=\275~\262\273\265y\236\275\2241\304<\306\307\377\275\016f\003=\235>\346\274\247\247\235\273#\345\243\275\315\006\370=\346 D\275\240\240$\276V\356\"\276\356\340\273\276s\341\233\276I\206>=\300\217\001>\177\204\234\275V\256\314=o;Z=6\234\003?\300@\222=\3148Z>\272Y\372>V\244b>\255qE\276\324V\225=\340~a>\222\222m\273\252\243\">\302\2007\276\251\322\r=]\331\350\274\360O\213<\362\016v\275\274\224y<v1H\275jV\002\276\020lE\275\275\241\357\275\243b\273\274\374\211\222=\261\360\021\274\277\004l:\336\rX\273\023\317x<\274H+>E[g\275#\250\266;\215m0\2760\265\305\274\3707\243>$\262S\2754\200y;L\200\224\275\220\006,\276\031\255\273\276F\242\023\276\224\"\024\2760k\023\276\336\254Q\276\0172E\276\302\267\366=\311\257\332\275vR\022\275m\253F\275\027\322/>-\354f==\206\317\274\020\376e\2766g\010=\331h\201\276\r\377\313=g\277\016=\357\326\323\275\262R\026\275Sk\253=\247\230\206\275p1\302<\3143\246\275\246\333\265\275\221\366\250\274\367\270\242\274\n,\217<\034\315\221\275\315~\310=xH\000?AX\340=s\250\227=\033\303\364\275k}\340=nJ\365=\236<\027\275\212\214\265\274x@\311=\276\274\350\275\032\312B\275\'\326\216=K&\n\275i\314*\275\250S\361;)1\232<d\r)=\360\271^<\0076\036\274#m7=\247\347\241<B\246!\276\362\025\222<\334j\247=\226{\035\275X=\367<\343\034g\274\026\222\262=\242\370&:t\203\323=\027\237N=\367\365\366<\202\207(=7\272y\275e\nH=\275\227\370\275\t\227\255=&n\226\276\322\265\343\275\220k\201\275\334_\251=\303o\025\276f=\246<a\200\223<e\211\204>z\034G\2764\231\213\273\336\031X<H67\275\305\316\020>PSP;Hx\256<\253o\006\275t\366:\273\344i&;\253 \354\2756K\214\275&\254\002\276\267\322\211\275,S\251<,\305\016>\212N\217=Ix&<\242\343\021=\017\026\n>r?\213<\375\220\251\275\013J\307<\230\234/>\263(\270>\215\034\240\275X\356\035>\031\204\034=\347\020G\275s\261\010>\242\320S;1\\3\274\n\327&=\233\304\257>M8R=2\3219\276\363\256\211\275F4\r\276\360\002{\275\0353\247:\227A\216\275\363L\221\2758t\324\272\245\300\021=\371\036\322\274 \330\341\2742\273Y\275\335\334r=\237\267M>\000:\326<\303\3665<:C\221\275\026\330\361\274\362v0>\006\312<=\212\273\007\276\033\352\335:\032\246C=\275\242@>\300-q=2\200\002\276\352\231\237=\346\027\\\2762)\333\274\231\265\017=\274e\351=j\262\231\276Q\035\212=\036\372\n\276\331%\311\274\033F\231\275\206\214\276\275\355\210\221=u;\030\275\017H\205\276\0066&\275S\211&\275S\354\246=\205\343(=\304\020f>\222o\332=\260\0036\276\032\242\341\275y\225\007\275bU\026\277\340_P\276[\254\354<+\232Z\275\322\372\361\274\333\266\262\275\232\261x\275\305OA=\332\312\306\275\346\341\253\2754#\251\275\365\017\221=y\t\t\274\266c\223=\303\371\223=\002<\263\275Te\200<\256n\'\274\236~\271<\240\230\331\276a\324I=ZI\"=-&\026\275\260(\256<j)\">\020\213k=\222Wu=<\352N\274L U>\033\310\264=\242\036\202=\3620\363\275\356\024\364\2754\323Y\276F\014\240\274\333yz=.o\305\274\270\313:\275\313\257\224\275\332c\270<\'\262=\275w4\317\274\340\273\030=Mmq=\0054h\275$\243\300=\3047\035<\300\320\023=n\230B<g\013b=\252\007\201\275/\245\311=\nb6=\342g\277;\360\243\304\275\240\241\234\274\004I\260\275\332i\270=K\036C<\357\313\324\274\300\005\023?\311q\344=]s\273;\326\026\256\274\263\352c>\017\276\221\276\236\345\371\273\274\370M\274*\026\214\274\221\032\376<\220\246\207\276H\235\264=.no\275\240\367\023=\201m\234<\260\026\252\271\026\371\r<\307M%\275\242\237\260<|\265Q\276\367\347\010=\331\321`\276q\022\251\273O\272!\274\336`\356=\330.\256:\314\356\300\274\200\314\":\254\355\223\275\301\244\030=\250#1\275j\3759\273\002\356{;\202\3236\277\254\266x<:^\324\274\315\025\025\273DLX>\241\345\232\274\313\026G\275\215\333\006<\201\231\266=\203\'\201\274\356\270t<\365\304\002=\205\222\242\274\032H\231=%\322o\275lb\006<\222\345\263<\277\3062\274\231\233\202\274RR\203\275d0\227<<\3735=\222\345\244=\311\357H\276\330\221\330\275\265\325\365\275\267IN>}\357\344\275\235\364\264\275\222\306\323\275V5\207\276\361\220\273\275\026_-\276\026l\023<_\224\017\275uj\237\275s\255\033\277\265P\303=t\304c\276\225#\201\275g\203|\275;\'\004>\305\036\275\275\325\210\375\275\223!Y\275]EE=}\210,=\'\270\346\274d\3565>T\310\354\273#L\315\275i\204\257=L\372\224\276\341x\023>\025\232\260\273\277r\243<8aS<\\\264\241\274\341\253\034\275\254l\212=v-\032\275\2300\002>\257k\020>\367\212\233\276\027\335\235=b\354\257\276[\217\035\275$a\t=&\237\214\273\221$\337\274\266G\215\275\013G\210=DW\233\274\025\326O=H\340\237\274S\224\236>Q\326\265\273}\352N<\257\327\367<\266\206\017=\177\261@=\307wG=\223\364\255\2737\263\322\275z\246\211<v.\362=\374V$\276\350\264\240\276\240\304\254\275\0221\335<\211\017\n=n\234F\275\365\315\205\275\005\251\341\273\206;7=z\034\220<\337\230\r>\216\366c\274o\235\266\275\371\307\247\275\306N\026\273\301\314\212=\233I\261\275\032\203)>.\342:\276\235\213\270<\367\362\264\275\177\276\375\275\232~\314\275\007\367\033\275\376\324\344\275f\211\364\276\261=\244\275^\336d\275>\302\210<\004\231`\275V\177.\276U\005\266\273+\003Y\276\322\nM=\360|\200\275\"\214\210\276\272\276W=\t\300\307\275\215\255\276\275\257+\000\275k6\014\276wi\217\273\272@\304\272\"\221\'\275\310\326\227\274\215\247 =\033\024\375\275\230\210N=+k\342;\311\214!\275A\350\251\275P\355\317\274\3174\344\274\n\353(>1O\314=Q\351\n\274Xm\312\276I\"\264<i\326\002>Q\204\232;\313Z\262\274\007\037\266\275\'\240\305\276 \375\251\275G\267\237<\224Y\240\275S\261\024=?\003\260=s\'\340\275\230U\t=\222\225\366\271\207\270\340\275\013v\024\276~\207#\275\2331g\274\306\246\241:P\0075=\354<\016=d\214w\275\272/N<\014\177\250\274:5\004\275\321\342\035>`#\213\275\375\023\202\276\366\231\372<\256\343\010>Jt:\276\035#?>\230^w\276c\321<=\357\226\351=V0\226\274\rMC<\263`8=Kx\336\273\257\3611>\305\017\215>\347\313x>\271\030\010>\370\362\357\275J5P>|\025\215=\026\261\227<\211\002C=\265.\245=d\030+=\307\002\000>\342dn\276\037\246\350\275\265\245\001>\366\360X\274\337\035\351<\355\031\031\275d@\225\275\222\241\367;\267\322\025=/\310N=x\306\364\274\313\255\215\276J\326\302\275B\252_\275\035\206\245\275HO\034\2761A\t\276E\300\337=;\331\235\275\017t\301=\327\237K\275{0\252\276\026\323O\276\203a\034<\273\374\332\274C\'Y\275\361_\034=\362\024o\275H\177f\274\307\020\251\2751Y/\276\360k\263\2751\300Y\275\201\2341\274(p\215\275v\026\371\273|\324\366\275> \374\274\201w\000\2769\021\207\275|\232G\275\326\006`\276\274\310\027\276%\241\210\275PXb\275\316B\214\275\025\323\016\276C\272%=\263@\260=iE`<>G\013\275\347hC>\371\2361<{Y\377<\226X3\275\r\315{\275\364\266\212=\021\340\024>X\212\017\276\036}\232<\323\242\342<B\200K>S\364p\275\034\367\331\274\316E3\274%\305\224\276\321\022\026\275F\232p=\256\312\023\276u7h\276\024Y\317\275\215\016o\274\000\313\375=\032\274\323\274\305\276S\2762\022$\276\270\354r\275\016\275`\2744\257\'\275\215\377t<\246\250\036\273\364J\033\276\306G\006>\0207\254;#\307y\275px\004><\273V\275\315>\\=\013\346\337\273\331#\242\275m\034*=X\266\267\274\017\266~=.\304\204>\222\031\271=[\351\035\274\340/_=\200\324*\276\260m\212\2740Mn=\371\333\324\273\230\370\365=\003\\\007?\234\003\313\273;\r\236\276e\r\237\274+9\221=\300\202\237\275\235\217\255=\035q}<#\025\'=KfA\274\004M2>\361:[=\013\002J\275\211\241\r;\031\220G\275\252/\245<\242_\214=\263\244!\275\310G\233<\032\251>\275\240v\033=?\372\202=\312\236\254=\006\274\213\276\370b]\274\372\035\204>5\315\206=n9\020\276TL\364\276\032\240\346<\260\031\177\275\036x\014\276QwH\276\315\2069>\027\036\354=\356m\375\275\2760\341\275%\2751=\010\205\n>c\242\263\275\365q\013>\223\346\177=\0352r\275\273S\010\276\333\241\263=\023{\014\275?\330\306=\010\027\342=\212\331*= \206\354\275q\274\373\275Z\3248=\236\375u<\220|3=\324\262.>1\241H\276z\016w=\234\337\024>n\220\225\275b\226\'>K-\373\275\036\301\024\275O\330$>F\022\016>/\335\204=\252;:\275l\024\234\2740B6\276G\004\247=\013\316\266=D\307:\275\020*\010\275\314\366\007>E\304\001\275\354L\260;\020e4>\254J%>\366!\013=\336\205C>\305Aw>\271_\013=\264\005A=R\364y=\233\024\223\275!\231o\274i\373_=\247\032\240\275\373\235\217=\352\207\354=\000\276\305=Q\374\364\275\316\236\221\274\276>\217==\231\270=\367\023\357\274\376\2224\276r\177<=\343!G\276\033\264\217=gT9<:\237\'?s\322\206=\214E\021=\3572\020>\035\267\354=1Xu>\242\270\037\276*\330\016>Q\340\323=\314\225;;~\376\266\275\236\001\266=\310\235\025\2756\363\225=\014b\215>\022\357\206>Rql\275$j*\275\014L\264=\231\235\210=\2548\365\275\204+\216=\026\362N=\262\343\025\275\"\235\300\275\224@)\274;\224\372=\3615\330\275\320\206\262\275\332\001\306\273\365\313\034\274\005\\X<A\312M=\333\326\026=u\372\327=>\013I\274\305\265\226<\004\213\216\275\225&v=sB\005\277m\344\245\275\330\2120\275\314?\207=\025\352L\276O\246h>\337\0377>\272\037\210\274G\031\301=\241\351!\275T\227\217=&\nu=\244\247\004>\371NY>x\006\006=sq\361=a\227\351\273\231\313\013>\323\267\234\275\275\200\226\272\246\2079\274\230\322\331\275\003\220\264\275\033sa=\210\264\033\275\312>\016>\202+\366<\256\244Y\273\206\247\245\2744w6>\363\2673\275\031;\251=\303\271\330<\247<|\275\266\242\344\275\262\277\223\274\354\347\347\2767y\363=\201\031D\275}g\211<\212\300\221\274\347\376\333\274<\201\306=:\350\253\276( \262=8\255T\275B\024\022\276\252V[=\230N@>-\222\340=\364V8=\330\"\210=0\014 \275\322\242\'\2750\265\304\275\314|\314\275\030\224\204=\256q\256\275\325\014\243;\370\020K\275Y\303\005\276\267\032\260\275\377H!\276\017\t\314=\357\275u\274\0147A\276j\002\032=0%E\276s\252\276\275\367\331\364\276kuW<\343\252\014=\236g\237\276\260\366\216\276S<\276=\006`B=\035\277e\276\212\305\341\275\343k\017\276\033;\244=\324\230\242\275\364\251\266\274\263x\'=\232j\361\276C\207\023>\t\264O\276!c\313=\031\370\245\274\211@\251<5\355\204\275h\236\201<\325\223\371<\326V==d.\014\275\304jR=\257\352\340\275\341\277J\276z\256\211=\357\375r\274\311\006\005\275\033L\301\274[0s\275\375\305Y>\311[\251\274\303>\266\275\304\024\377\276=\372\343<\357\316\212\275F\355\305;\224_<\276&Z\253\274\310\010Q\274\223\204@\275\363\227U\275\300\004\324\275\362\332\202>\253\247\020\2760A\364\275g&\022=2\377V>5\242\r\276A\341\206\275\n\337:=o\206}=\264l\302\275l\217\343=<\2372\276\327\2349=\031\212\303=\251\222\\</\024\372;\273\361s=\315R\227\274b\265H\275m\331\260\274\367#\210\275\330YF\276\262\r\351\275\370\277!>\005Q8\276#.Z\276y;(\277\321h\021>9\357\035\276\203\202\354=\024\022\261\275\001\314\255\2745\004\222\274\231\031\211\276\252?<\275\365kG\276\033}%\2762C\235\275\214\207\r\276!\306\245>\254a\240\274\000\366\344\276e\216\202\276\366C\025=\316\014\352=\356\0175\273\366\227\020=3\265G\276\376\225{\275[\330\263\274)j7\275\310\225\300=\251\010\236>\347\377\025>\254\376\"\276\334\304m=\256{\343=\033\014G=\230uk>S59>E\032\177=v\226\341=zr\341\276\211\324^;\'\026\002<\360\177c>\013\246\276\274)\023*\275\346z\004\275\242]!>Dk\023\275]\203Z<I\342\006\276<-\365<\232\002\234=\305\346\206=\203\203\320\275\332\036J=\367g\037\276B\036r>\226\225\003>\303\024\251=\372\312\007=\231\"\327\275\022\207V=\345]\247\275\365\001&\275\305!\036>\223\361+>\212eD>W\231\306\273\3027k>\260\372\225\276\242/=>\264\235o>\257Xv=f\245\215>\355t\251>\203\370\205\276ts\317\274\200\333\354\274f\336\034\276\320\253\231>\307\370@=\341\'B\276\241-\264>\271\335G\274F:i<\332\023\022\2765\320!\276\216\342\374=U\205\213=t\340P>\003\346\035=\224\304\271\272\204/\244\275\222J\002>\331\342\307<B\354E\275z\301\014\276\274Ow=\316~j\275gP\260\275\004\231\232=\177\341\021>\363h\237>O\020\010>T\021l\275\211\3246=;\325\256\276\256\001Q\273w\002(\275\246JU\275\"\177\000>\207\342c\276\006\271B\274\n\026!=gD\025\276cJj\275\037l\216\272\213f\002=F\310_>\361\244\023=\351\030\357=V\000\273>5\244\345<i\357`>\264\3417=\203z\004=\372\243\202\276\342\310k>\334\242%>\203SR=A\205\006>\022\020\014\275\257CY\275B+\271=\353Z\277\274\005\205~=71v\276\237\226\371\275\330\362\204\276\263\272}<\311\264\006>\224\226}\275\026pe\275\021\233\n\275$\217\\\276\374\335\003>\346\026\354\275\265\344d>\354\237W\275\235\342\"\276\244\332z\276\326\323\327\276\275!Z>v\305\"\273\301?i<b\010\336\275\364Z\325\275\270^\221\275\207\247-\275,\223;=\355\200\257\275\2659z>\3755T>\223\377k\275\203\r*;\320\314\335<9V\304\275RL\005>\354\232\263\275\246\306:\275\324}\313\272\030\303\247\274"
      }
    }
  }
}
node {
  name: "conv2d_5/kernel/read"
  op: "Identity"
  input: "conv2d_5/kernel"
  attr {
    key: "T"
    value {
      type: DT_FLOAT
    }
  }
  attr {
    key: "_class"
    value {
      list {
        s: "loc:@conv2d_5/kernel"
      }
    }
  }
}
node {
  name: "conv2d_5/bias"
  op: "Const"
  attr {
    key: "dtype"
    value {
      type: DT_FLOAT
    }
  }
  attr {
    key: "value"
    value {
      tensor {
        dtype: DT_FLOAT
        tensor_shape {
          dim {
            size: 36
          }
        }
        tensor_content: "\230\332)>\260\326\345\276\035\277\035@\255\025\335<\000\236\037@\001\302<?\377\372\215\277_\330\235?a\035\274>\355\342u?\300\270\245?\231c\006@\372 \261\276\227f\260\276oq@\300\242\340\300?\264\337\325?\316\325\n\2777\026.?X ^?\243\345\253\276\340\203q=f\227\316?|\231%\275\340\364h?G\302}?\362{\032@\2516\"@\364@\351>\003I$?0h\224?\320\014\201?(\325\240<\177I\274\276\322\352\350>\367}\217\277"
      }
    }
  }
}
node {
  name: "conv2d_5/bias/read"
  op: "Identity"
  input: "conv2d_5/bias"
  attr {
    key: "T"
    value {
      type: DT_FLOAT
    }
  }
  attr {
    key: "_class"
    value {
      list {
        s: "loc:@conv2d_5/bias"
      }
    }
  }
}
node {
  name: "conv2d_5/convolution"
  op: "Conv2D"
  input: "depthwise_conv2d_4/depthwise"
  input: "conv2d_5/kernel/read"
  attr {
    key: "T"
    value {
      type: DT_FLOAT
    }
  }
  attr {
    key: "data_format"
    value {
      s: "NHWC"
    }
  }
  attr {
    key: "dilations"
    value {
      list {
        i: 1
        i: 1
        i: 1
        i: 1
      }
    }
  }
  attr {
    key: "explicit_paddings"
    value {
      list {
      }
    }
  }
  attr {
    key: "padding"
    value {
      s: "VALID"
    }
  }
  attr {
    key: "strides"
    value {
      list {
        i: 1
        i: 1
        i: 1
        i: 1
      }
    }
  }
  attr {
    key: "use_cudnn_on_gpu"
    value {
      b: true
    }
  }
}
node {
  name: "conv2d_5/BiasAdd"
  op: "BiasAdd"
  input: "conv2d_5/convolution"
  input: "conv2d_5/bias/read"
  attr {
    key: "T"
    value {
      type: DT_FLOAT
    }
  }
  attr {
    key: "data_format"
    value {
      s: "NHWC"
    }
  }
}
node {
  name: "lambda_3/Const"
  op: "Const"
  attr {
    key: "dtype"
    value {
      type: DT_INT32
    }
  }
  attr {
    key: "value"
    value {
      tensor {
        dtype: DT_INT32
        tensor_shape {
          dim {
            size: 4
          }
          dim {
            size: 2
          }
        }
        tensor_content: "\000\000\000\000\000\000\000\000\000\000\000\000\000\000\000\000\000\000\000\000\000\000\000\000\000\000\000\000\004\000\000\000"
      }
    }
  }
}
node {
  name: "lambda_3/Pad"
  op: "Pad"
  input: "activation_4/Relu"
  input: "lambda_3/Const"
  attr {
    key: "T"
    value {
      type: DT_FLOAT
    }
  }
  attr {
    key: "Tpaddings"
    value {
      type: DT_INT32
    }
  }
}
node {
  name: "add_4/add"
  op: "AddV2"
  input: "lambda_3/Pad"
  input: "conv2d_5/BiasAdd"
  attr {
    key: "T"
    value {
      type: DT_FLOAT
    }
  }
}
node {
  name: "activation_5/Relu"
  op: "Relu"
  input: "add_4/add"
  attr {
    key: "T"
    value {
      type: DT_FLOAT
    }
  }
}
node {
  name: "depthwise_conv2d_5/depthwise_kernel"
  op: "Const"
  attr {
    key: "dtype"
    value {
      type: DT_FLOAT
    }
  }
  attr {
    key: "value"
    value {
      tensor {
        dtype: DT_FLOAT
        tensor_shape {
          dim {
            size: 3
          }
          dim {
            size: 3
          }
          dim {
            size: 36
          }
          dim {
            size: 1
          }
        }
        tensor_content: "\005,\032>~\243\017\277\327\033\202\276\354\315R\276\010\306\324>\373\\\035>k\226\242=\323\2149>\366\225^>r74>\251\027\037\276\025k\304\275l\271\275\276\244N\236\275\363H\004>\250\314!>\027\373\374\276\364`\r\277\364\302\266\276\252,\0049\370c\010\274g\024\211=\337z\353>\"/\\\276\264\203\014:p\'\010\276\315\017\342\275.\tv\276kp\210\276\313}\376\274\023\231\360\276*\221\027\277\364\314\030?\177Q ?s]9?{_L?I\375\202\276\002\274\301\276\250\025\255\276B7C?\347\2214?\253\250/?\347\311u>W2\377\275;\217\261<3\317\002?\256\267\360>h\315~\276\010;`>\355\246v>\241Yv>\303{\003?B\322\"\275\\\326\013\277\344\0345\277\272\005l\277B\006\212\276\230_\205\276\013%\313>J\272@\277\245%\344\276\341\203\001=\244D\005?\373\321\014?r\016\226?\272\016I\277\312X\360>\013\260n\277\245\314\332>\265\207I?x s?\001`s?d\n\t\277l\346#?\317\275\207>\2532\277>\217\021u\276\264\014\322>\221\361\335=\206\255\253\276+y\027\276\014\377\274>\010\014\005?\353\3325\276\264\341\376>r\371\226;9\343\202>2\016\314=\254\256!>\023\021\004\275\250\242\201>\200\304j=\365\304f\276\003\212\003\277\363\324\220\276\314\002W\277w\347\203\276\"\315\201>\303\361\250>!\355.?k\\h?\352,\370\276\242\334X>=r\337\276\231\270z?\003t;\276|+\201?\316\007%?\344\217\265\276\300\001\332\276\3637\355\276\304\341\301\275\025\253\010>\321uD\277\366\203H\275\255\033\277>\351\215\000>e\330G>T\371\031\277$\2342\275}\217\014\277P>$>\003\300Q>Z\345\014\276p+6\277\206U\215\277Q\264D\277\224vY\276U\":\275\376\361\300\274m\333\032?T6\227>.\257+>o\341\026?@\320\352\276\034\371\004\277@\rb\277\364\346\210\276\207\022\223\277H{\201\276\206\213\277>:$q?\345\262\265>\206\265}?A\215\n\277\314^F\276\205K\345\275\230\360\202?\216)S?\216S\031\277\365\004\267?\311\375\035?P\221\r\2779\343f?\\\0071\277\306X\251?\241\234\215\277\202\352\275?\271D\237?\025\273\030?\365$8?\305\331\216\277yX|=\232\002y\276h\241S\277*5\215\277\030\220\260?\267\244\261\276.W7\277|\262o?y_q=\006\311K=\207\3353\277\374qZ\277qR\356\276\270q\'?\022\013\035?\272\272??\005\330\242?\354\302\266?[\363D\276\332\277\037?RZ`?\337*p>\272\016\246\276\346U4?2N\276=\340\0006\277-b\004\277_h5?q\375\003?E\207\005\276\035\0329=\270F\263>=\342\n>\261\226\244>b\013d?\177\231.\277B\360{?\231\205\021?\001_\032>1\207\336\276\376\330\036=\314\237\366\276\361W,\277\255\300\342=90\257=\361[\027?hy\240>{\222m\275\251\267(?\303v\203>\252[\215?\356|\004\277v\326\231?\354\324\343>\236\353\347\276b\342\324=#Or\276\253\316\215\276W\252\r<\373\312\224\276Kq\203\275A\312\234>\344\327\261\275\203\217\007\275\355\204\271\276\360\206\271\274$]\013\276\345a\353\275\253\250*\272\233\374\226\276&~\2579Z\270\304\276TI\372=x\031\355>\271\021L\275\007/\217\275MF\243\276\226J}>6W@>\017\247\n?\300z\210\276-a\311\275\276\231\267\276a\267\271>\220Q\013\277=\227\255>\364\274{=Y\200\n>\035\222\221>\303x%?\357\346o\275\255\204\017?i\215\251\276\316\\%\277\325\373$>S\036%\277 x\311=\273\345\314=\301\212N\277\211\206\350=\303\324\221\276B\333\354=\307[\021\277\354\272\256\275\032\204\033>F\260g>\025D\037>\367\010\247\276\345\216\347>\014\210k?\200\213\017\277\257c\034>\257\356\364\274R\020\305\276\201\272\247<\242\370\237\275\033\023\n\277\310x\004\277\023-/\277\334\220p>t,\272\275Ke0?|\351\r?#\350\251>6\234\234>\017H\016?\020\030\354>T\346\310>\203\006\272>\216\305\202\276\373\020\032\275\0053\344\2753t\322=\353\\~\276\225\374\325\276\223\344<>\326\313*\276\2469\210\275\232\210\025\276T\312\217\276\030L\"=\347&\244>Z?\256>;T\304=N\334Y\275\3430\376>\244\221C\276\302r\030\276\"\027\300=\207\360\336\275\243\215\245\276\214\342\256\276?\351\020\2778\215\024\277+\327\255\276\255\007!?\301\307j?\261\210\025?\331\213\371>D\303\231>NQ\r?T\363\037?"
      }
    }
  }
}
node {
  name: "depthwise_conv2d_5/depthwise_kernel/read"
  op: "Identity"
  input: "depthwise_conv2d_5/depthwise_kernel"
  attr {
    key: "T"
    value {
      type: DT_FLOAT
    }
  }
  attr {
    key: "_class"
    value {
      list {
        s: "loc:@depthwise_conv2d_5/depthwise_kernel"
      }
    }
  }
}
node {
  name: "depthwise_conv2d_5/depthwise"
  op: "DepthwiseConv2dNative"
  input: "activation_5/Relu"
  input: "depthwise_conv2d_5/depthwise_kernel/read"
  attr {
    key: "T"
    value {
      type: DT_FLOAT
    }
  }
  attr {
    key: "data_format"
    value {
      s: "NHWC"
    }
  }
  attr {
    key: "dilations"
    value {
      list {
        i: 1
        i: 1
        i: 1
        i: 1
      }
    }
  }
  attr {
    key: "padding"
    value {
      s: "SAME"
    }
  }
  attr {
    key: "strides"
    value {
      list {
        i: 1
        i: 1
        i: 1
        i: 1
      }
    }
  }
}
node {
  name: "conv2d_6/kernel"
  op: "Const"
  attr {
    key: "dtype"
    value {
      type: DT_FLOAT
    }
  }
  attr {
    key: "value"
    value {
      tensor {
        dtype: DT_FLOAT
        tensor_shape {
          dim {
            size: 1
          }
          dim {
            size: 1
          }
          dim {
            size: 36
          }
          dim {
            size: 42
          }
        }
